[PAD]
[UNK]
[CLS]
[SEP]
[MASK]
!
"
#
$
%
&
'
(
)
*
+
,
-
.
/
0
1
2
3
4
5
6
7
8
9
:
;
<
=
>
?
@
[
\
]
^
_
`
a
b
c
d
e
f
g
h
i
j
k
l
m
n
o
p
q
r
s
t
u
v
w
x
y
z
{
|
}
~
¡
¢
£
¤
¥
¦
§
¨
©
ª
«
¬
®
¯
°
±
²
³
´
µ
¶
·
¸
¹
º
»
¼
½
¾
¿
×
ß
à
á
â
ã
ä
å
æ
ç
è
é
ê
ë
ì
í
î
ï
ð
ñ
ò
ó
ô
õ
ö
÷
ø
ù
ú
û
ü
ý
þ
ÿ
ā
ă
ą
ć
č
đ
ē
ė
ę
ě
ĝ
ğ
ġ
ģ
ī
ı
ķ
ł
ń
ň
ŋ
ō
ő
œ
ř
ś
ş
š
ţ
ū
ů
ű
ź
ż
ž
ƒ
ơ
ư
ǧ
ș
ț
ɑ
ə
ɩ
ɪ
ɾ
ʹ
ʼ
ʿ
ˆ
ˈ
˚
˜
ˮ
́
̂
̆
̇
̈
̌
̧
ͼ
ά
έ
ή
ί
α
β
γ
δ
ε
ζ
η
θ
ι
κ
λ
μ
ν
ξ
ο
π
ρ
ς
σ
τ
υ
φ
χ
ψ
ω
ό
ύ
ώ
а
б
в
г
д
е
ж
з
и
й
к
л
м
н
о
п
р
с
т
у
ф
х
ц
ч
ш
щ
ъ
ы
ь
э
ю
я
ё
є
ѕ
і
ї
ј
қ
ҫ
һ
ә
ԁ
ա
գ
դ
ե
ի
լ
կ
հ
մ
յ
ն
ո
ս
վ
տ
ր
ւ
א
ב
ג
ד
ה
ו
ז
ח
ט
י
כ
ל
ם
מ
ן
נ
ס
ע
פ
צ
ק
ר
ש
ת
،
ء
آ
أ
ؤ
إ
ئ
ا
ب
ة
ت
ث
ج
ح
خ
د
ذ
ر
ز
س
ش
ص
ض
ط
ظ
ع
غ
ـ
ف
ق
ك
ل
م
ن
ه
و
ى
ي
ً
ٌ
ٍ
َ
ُ
ِ
ّ
ْ
٫
ٰ
ٱ
پ
چ
ک
گ
ی
۪
ं
क
त
द
न
प
म
य
र
ल
व
स
ह
ा
ि
ी
े
ो
्
।
ক
জ
ত
দ
ন
প
ব
ম
য
র
ল
স
হ
া
ি
ু
ে
্
য়
க
த
ி
ு
்
్
ಿ
್
ക
ന
ി
്
ก
ข
ค
ง
จ
ช
ด
ต
ท
น
บ
ป
พ
ม
ย
ร
ล
ว
ส
ห
อ
ะ
ั
า
ิ
ี
ื
ุ
ู
เ
แ
โ
ไ
่
้
์
ა
ე
ი
ლ
მ
ნ
ო
რ
ს
ᴏ
ḥ
ḳ
ṣ
ạ
ả
ấ
ế
ệ
ố
ộ
ớ
‐
‑
‒
–
—
―
‘
’
‚
“
”
„
‟
‡
•
․
…
′
″
‹
›
€
₺
℃
№
™
←
↑
→
↓
−
∙
√
≤
≥
⋆
─
█
■
▪
▫
▬
▶
▸
►
▻
▼
●
★
☆
☎
☝
☺
♀
♡
♥
♦
♪
♫
✅
✌
✓
✔
✨
❑
❗
❣
❤
❥
➖
➡
➤
⠀
⭐
、
。
「
」
【
】
〰
あ
い
う
お
か
が
き
く
こ
さ
し
す
そ
た
ち
っ
て
で
と
な
に
の
は
ま
み
も
ら
り
る
れ
を
ん
ア
ィ
イ
ウ
ェ
エ
オ
カ
ガ
キ
ク
グ
コ
サ
シ
ジ
ス
ズ
タ
ダ
チ
ッ
テ
デ
ト
ド
ナ
ニ
バ
パ
ビ
フ
ブ
プ
マ
ミ
ム
メ
ャ
ュ
ョ
ラ
リ
ル
レ
ロ
ン
・
ー
ㅋ
一
万
三
上
下
不
世
业
东
个
中
为
主
么
之
乐
九
买
了
争
事
二
五
交
产
京
人
什
今
代
以
件
会
体
作
信
免
全
公
六
内
円
准
出
分
划
利
到
前
加
动
势
北
区
十
单
南
县
友
双
发
可
台
号
司
合
同
名
吗
和
品
哪
器
四
国
图
在
地
场
址
坛
城
多
大
天
奖
女
好
如
姐
娱
子
学
安
完
官
定
宝
客
家
小
少
山
川
州
工
巧
市
平
年
广
库
度
开
式
录
彩
影
律
微
心
快
怎
性
情
成
我
房
手
打
技
投
报
排
推
提
搐
播
数
文
料
新
方
日
时
是
最
月
有
期
本
机
来
枚
果
样
榜
正
民
水
江
法
注
海
港
游
澳
爱
片
版
牌
物
特
玄
王
玩
现
球
理
生
用
田
电
界
癟
白
百
的
直
眉
看
県
真
码
神
票
福
站
第
算
精
系
繹
红
线
经
结
网
美
群
羹
老
肖
能
自
色
花
莽
蓷
蓾
蔒
蔞
行
表
西
視
覺
规
视
解
计
记
论
说
请
谋
财
费
资
赛
赢
走
车
软
载
运
选
通
道
部
里
重
金
钱
门
集
霸
页
香
马
高
龙
가
고
기
는
다
로
쀀
사
서
스
시
에
을
의
이
인
지
하
한
ﬁ
ﬂ
﴾
﴿
️
！
（
）
，
：
🇷
🇹
🌟
🌷
🌸
🌹
🌺
🌼
🌿
🍀
🍁
🍂
🍃
🎀
🎁
🎈
🎉
🏻
🏼
👇
👈
👉
👌
👍
👏
💃
💎
💐
💕
💖
💗
💙
💚
💛
💜
💞
💥
💪
💫
💯
📌
📍
📞
📱
📲
🔥
🔴
🔸
🔹
😀
😁
😂
😃
😄
😅
😇
😉
😊
😋
😍
😎
😔
😘
😛
😢
🙁
🙂
🙈
🙋
🙏
🤔
🤗
🤣
##y
##c
##a
##o
##n
##i
##e
##u
##k
##ğ
##z
##b
##s
##r
##l
##d
##g
##ı
##m
##ü
##t
##ُ
##ح
##ِ
##ب
##ّ
##ه
##v
##j
##ä
##h
##p
##ş
##ç
##奖
##f
##а
##ģ
##é
##â
##2
##9
##8
##3
##6
##ы
##б
##и
##н
##с
##к
##î
##1
##5
##0
##р
##м
##о
##г
##̇
##ö
##我
##怎
##不
##´
##x
##е
##л
##ь
##у
##ý
##覺
##в
##ð
##ș
##þ
##w
##7
##¬
##4
##ш
##я
##т
##ン
##キ
##さ
##ん
##の
##バ
##ッ
##ク
##に
##い
##る
##ニ
##ち
##்
##й
##¼
##û
##і
##ю
##щ
##ã
##í
##å
##ÿ
##š
##ī
##发
##快
##三
##有
##玩
##的
##吗
##്
##ക
##ന
##α
##ي
##ع
##ت
##م
##د
##ラ
##ム
##式
##ф
##ц
##定
##合
##同
##规
##理
##度
##±
##ж
##q
##̆
##ա
##ր
##ի
##յ
##ն
##ň
##ė
##ा
##र
##े
##游
##看
##台
##机
##解
##料
##高
##手
##网
##站
##ア
##サ
##リ
##ー
##ł
##品
##ο
##λ
##ι
##κ
##み
##č
##½
##¯
##°
##ġ
##ѕ
##̧
##😊
##😍
##₺
##ê
##п
##ā
##ʿ
##ą
##ে
##জ
##া
##æ
##ا
##ل
##أ
##🙂
##י
##ל
##ו
##ס
##פ
##ת
##з
##年
##月
##日
##א
##ר
##ד
##ע
##っ
##た
##で
##す
##心
##分
##彩
##投
##注
##平
##ú
##■
##⭐
##️
##神
##争
##霸
##大
##し
##😉
##™
##س
##🌺
##ᴏ
##ロ
##カ
##ô
##ج
##►
##ظ
##ی
##ɑ
##하
##고
##َ
##ْ
##غ
##新
##香
##港
##马
##六
##ش
##ط
##ئ
##×
##್
##页
##ス
##デ
##フ
##ズ
##á
##ल
##ो
##न
##ी
##đ
##و
##ک
##ن
##ء
##ó
##ر
##😂
##ҫ
##ṣ
##😘
##©
##ž
##ԁ
##ك
##ə
##ξ
##ρ
##χ
##ί
##σ
##江
##д
##è
##ض
##ˈ
##ذ
##ة
##エ
##イ
##个
##号
##ø
##ż
##情
##小
##事
##京
##赛
##车
##中
##下
##载
##õ
##人
##ï
##以
##上
##ч
##🏻
##̈
##ั
##น
##จ
##ท
##ร
##์
##ี
##่
##−
##시
##ص
##²
##¸
##ё
##э
##х
##ū
##خ
##な
##性
##を
##表
##ま
##ʹ
##🏼
##ف
##😀
##ñ
##ν
##ﬂ
##四
##ე
##რ
##ლ
##ი
##ĝ
##市
##川
##州
##物
##タ
##ト
##ό
##π
##β
##τ
##ς
##ˆ
##利
##花
##什
##么
##生
##肖
##ř
##گ
##€
##ї
##տ
##ե
##դ
##蔒
##ב
##👉
##ë
##ブ
##公
##司
##官
##כ
##נ
##ث
##是
##美
##国
##学
##会
##加
##澳
##百
##一
##վ
##田
##ɾ
##子
##体
##ò
##☺
##ń
##ͼ
##南
##メ
##η
##ω
##έ
##❤
##😇
##🤗
##آ
##ٌ
##÷
##り
##と
##お
##¤
##家
##˜
##³
##ª
##👍
##法
##ě
##👏
##繹
##羹
##چ
##海
##姐
##码
##ह
##✨
##을
##💕
##ნ
##ა
##ს
##て
##ù
##®
##à
##ى
##ق
##φ
##ε
##ύ
##作
##期
##系
##版
##本
##ً
##¨
##准
##门
##双
##色
##特
##מ
##ി
##ķ
##💎
##ά
##℃
##天
##ـ
##行
##影
##υ
##μ
##γ
##ή
##ź
##通
##¦
##名
##开
##θ
##金
##ę
##ś
##🙏
##£
##կ
##ս
##ć
##க
##ு
##த
##ி
##了
##方
##经
##报
##图
##全
##ƒ
##ル
##ল
##か
##あ
##万
##円
##ら
##œ
##现
##ō
##库
##ʼ
##白
##玄
##의
##💙
##自
##票
##真
##提
##💞
##ß
##シ
##ュ
##👌
##ন
##💖
##ζ
##前
##き
##爱
##时
##ɪ
##结
##果
##场
##ő
##́
##北
##能
##今
##¢
##が
##く
##播
##器
##东
##在
##哪
##里
##ì
##ব
##প
##ু
##র
##ド
##算
##出
##💚
##娱
##乐
##水
##♀
##한
##精
##打
##ო
##º
##正
##บ
##ม
##ื
##อ
##ո
##ח
##ה
##ز
##最
##女
##ւ
##れ
##һ
##δ
##电
##可
##ψ
##九
##龙
##址
##ล
##ก
##า
##ป
##ิ
##ต
##ง
##้
##ุ
##เ
##ห
##ช
##ว
##ส
##十
##二
##赢
##客
##ウ
##走
##势
##😄
##ジ
##王
##牌
##ं
##व
##广
##त
##ơ
##ţ
##癟
##이
##ъ
##ű
##ナ
##オ
##ダ
##🇹
##🇷
##♫
##ן
##ˮ
##🌟
##기
##는
##👇
##ィ
##动
##ů
##数
##文
##件
##区
##ם
##्
##片
##部
##ק
##ג
##🙈
##🌹
##ি
##্
##ক
##দ
##单
##로
##ә
##ǧ
##テ
##西
##安
##到
##工
##选
##💐
##🌸
##ώ
##マ
##レ
##ビ
##交
##µ
##成
##📌
##̂
##和
##ﬁ
##福
##用
##コ
##إ
##如
##ٍ
##プ
##🔥
##视
##老
##ะ
##ย
##พ
##แ
##ด
##💛
##♡
##资
##代
##钱
##も
##🌿
##♦
##→
##技
##巧
##软
##ョ
##스
##서
##😃
##👈
##♥
##↑
##パ
##գ
##լ
##մ
##论
##坛
##ש
##ミ
##谋
##ă
##ț
##ि
##क
##直
##说
##こ
##ャ
##买
##ט
##에
##グ
##ŋ
##内
##¾
##来
##运
##😋
##信
##推
##请
##द
##प
##ู
##ค
##স
##🙋
##지
##인
##ē
##之
##😁
##☎
##计
##排
##😅
##❗
##💯
##ಿ
##业
##记
##集
##は
##五
##💫
##ạ
##य
##😔
##다
##😎
##հ
##🌼
##🍁
##群
##پ
##世
##界
##第
##费
##ɩ
##录
##ḳ
##צ
##म
##য়
##重
##ェ
##ข
##ไ
##多
##为
##❣
##划
##✅
##ガ
##房
##产
##ז
##う
##є
##स
##宝
##💪
##球
##完
##好
##ố
##ؤ
##免
##사
##۪
##地
##少
##ٰ
##ј
##ả
##チ
##线
##হ
##ư
##城
##🍀
##财
##民
##●
##💜
##县
##მ
##ộ
##가
##山
##✔
##โ
##№
##主
##✌
##≥
##🎀
##🍃
##🍂
##⠀
##¹
##😢
##🤔
##য
##道
##ম
##ḥ
##🎈
##★
##友
##💥
##≤
##్
##🎉
##💃
##¥
##微
##ٱ
##律
##红
##🎁
##💗
##ত
##̌
##қ
##✓
##そ
##♪
##∙
##枚
##˚
##√
##➡
##🌷
##📞
##☆
##視
##莽
##眉
##样
##←
##▫
##ế
##☝
##↓
##榜
##▪
##─
##█
##ấ
##🤣
##📲
##📱
##ớ
##❥
##ệ
##ㅋ
##🔸
##県
##😛
##▻
##📍
##🔴
##▼
##🙁
##➤
##▬
##➖
##🔹
##▶
##蓾
##⋆
##쀀
##蔞
##蓷
##▸
##la
##er
##in
##an
##en
##ın
##ir
##ar
##il
##lar
##ma
##ek
##el
##ak
##le
##da
##un
##de
##or
##ler
##lı
ve
bir
##iy
##et
##im
##es
##iz
##on
##ik
ka
ya
##ur
##ır
##lan
##at
de
##ün
##as
bu
##ay
##em
##is
ol
##al
##ür
##di
da
##ey
##dı
##iş
ba
##am
##it
##um
##ların
##den
##ım
##ız
##ya
##ul
gö
##li
##dan
##st
iç
ar
##ıl
##ok
##ları
sa
##ık
yap
##ini
##ış
##du
i̇
##ında
##ol
##ine
##ta
##ec
##inde
an
baş
##bil
##ük
##yor
için
##mas
##ti
##az
##esi
al
##iyor
##mak
##üz
##tı
##leri
##üm
##dir
##ğı
##iler
##eler
kar
gör
in
##te
##ca
##ev
##ını
##ra
ile
##cak
son
##me
et
##dır
bil
##mek
##lık
##ği
##inin
##uş
gel
##uz
ger
##ce
ver
ay
ön
##iye
kon
ta
##ha
##oğ
##ına
##ut
##eç
en
##lik
##us
##uk
il
oldu
##ön
##tir
##üş
ne
##len
##ara
##ıs
değ
##larak
##tır
ed
##bi
##unu
kur
ha
##ez
##iniz
iş
gi
##man
tür
çok
##alı
##cı
##ması
olarak
##ro
##şı
##ip
or
##bilir
yer
##se
##öy
gün
ben
bel
kad
ko
##anı
her
ma
ist
##ından
##ül
20
##mış
##tan
##ka
##ed
olan
on
daha
##lay
yıl
##ki
bul
bü
##ası
##miş
var
##lama
aç
##laş
##sa
olduğ
türk
##lu
##op
öz
kul
##aki
##yon
sür
##imiz
ken
geç
yar
uy
ara
##eni
##eki
##eş
##ının
##ecek
##ci
ama
##ba
ak
çık
kullan
çalı
##isi
##ili
##ken
##ece
gibi
##ör
##zer
##san
##aman
tek
##öyle
yaş
##lerin
pro
##ret
kal
ek
yön
gerek
##yla
bak
çalış
tar
kadar
yan
say
dev
##eye
kay
##ru
sağ
büy
##let
##eli
##ılı
##ih
top
gen
##unda
er
##os
##lü
mü
ev
##leş
sor
üzer
##diğ
el
zaman
##ımız
##aya
düş
##ers
yaz
olma
##ap
doğ
oy
ola
par
den
##met
##eh
##larını
##ilen
##lara
##ist
##lem
##daki
dur
bo
hay
gü
##va
bulun
##dığ
san
##ter
##ilm
##gi
##iyle
sonra
bun
eğ
##men
##iyet
öğ
##inden
biz
##ah
yapı
hak
##öz
##fa
##dım
##iç
kap
şey
##eb
yeni
tara
##ark
##tur
siz
201
##yi
büyük
hal
##om
##öl
##arı
##cu
dön
nin
##asında
özel
##ınız
##ren
değil
##maya
taraf
##uy
do
mil
##gu
yak
sen
##der
as
es
türkiye
##dığı
sah
yüz
##ab
##ep
uz
##imi
##ten
##ede
##larda
karşı
böl
##ans
##ot
##eri
alan
belir
tak
bur
şek
gerç
mu
##lam
dün
##if
ise
mer
sev
##ic
kend
##sun
ın
##deki
ok
##dür
##diği
##lerini
##arak
gir
başk
kiş
##ıyor
yol
##i̇
der
ser
düz
gerçek
##bul
tem
##lk
yük
har
##lat
##cağ
at
##ana
yok
##tr
açık
ki
söyle
##kin
##00
veya
hem
##makta
di
##tü
bağ
ilg
has
su
##lığı
##larının
##eleri
iyi
ada
göre
##elik
insan
19
##re
##sel
##yan
neden
##ster
##iv
ilk
ço
haz
yet
##esinde
ayr
tarih
ün
önem
##ef
ad
##ısı
##mesi
##ram
##eceğ
un
##mekte
##dü
##siniz
alt
##ber
##est
tan
seç
##lere
##uyor
##erek
tüm
söz
##iyorum
ağ
##larına
##bir
##ley
iz
##una
tarafından
##maz
durum
ort
edil
mo
ter
göster
##yı
olduğunu
##dik
##ünü
kat
fark
sır
yönet
##mam
göz
aş
nın
öğren
##lığ
##iyat
art
önce
kaz
##ça
çek
##si
av
hiz
değiş
ab
kor
olduğu
##dık
get
öl
hiç
i̇n
##dece
##art
şekil
hizmet
##muş
az
##ran
getir
##ada
##eyi
genel
##larında
eğit
ülk
##lah
bin
##ven
kurul
kan
mi
hat
##liği
oluş
bilg
te
##maktadır
şu
##sı
##leştir
uygu
ayn
bas
sat
alı
##aret
dış
ih
##ğu
##asyon
##tür
##unun
##ğer
##ileri
##cuk
##daş
hayat
##up
yay
i̇st
kim
##mektedir
tut
güz
kö
##dur
##tik
##han
##bilirsiniz
ilgili
etti
değer
##üs
##ımı
ot
mes
faz
devam
##ad
çocuk
bay
şekilde
is
sonu
##ika
##eğ
hakk
zor
##raf
duy
iki
düzen
##id
güzel
geliş
##por
konuş
olur
ör
##acak
diğer
##ağ
önemli
##liğ
bek
##ıp
kıs
fazla
birlik
baz
##lardan
##kez
oyun
##usu
çalışma
10
##mes
sahip
ür
yaptı
güven
##lerde
##olo
##siz
##istem
başla
aynı
tes
##üt
içinde
sadece
200
em
konu
merkez
eğitim
##lacak
hazır
##lerinin
##tar
sistem
##gün
##tu
##anbul
ancak
kam
##sek
sit
##çe
##dim
##enin
tekn
##sız
am
düşün
kes
##rup
yardım
arasında
##lendir
arka
##ındaki
diye
nas
mal
bölg
ayrı
##kü
##ile
##lerine
##meye
alın
##ilik
üst
ede
##del
eş
##tör
saat
i̇ş
mah
haf
tel
gelen
##ayı
kız
benim
##na
##ünde
bey
dönem
##larla
büt
i̇stanbul
fa
dan
im
##oloj
olacak
üret
kit
##dığını
yapılan
##ket
böyle
##ban
##gun
görev
etk
##mem
##ig
yapıl
kü
doğru
dik
dünya
sal
birlikte
##likle
##gram
içer
##ıcı
git
##bet
boy
sek
ürün
i̇s
kı
kendi
gaz
tur
kom
mak
yüksek
olmak
ye
nasıl
##eyen
karar
mı
so
##tiğ
mad
başkanı
orta
farklı
##mıştır
##iya
##ehir
##det
eden
kazan
kadın
bah
##cel
tas
##iyon
##lanan
##dar
##ne
üy
##masını
##kan
##sin
fir
bunun
fak
bit
başka
önc
ban
beled
##larımız
##eme
##lo
##iyas
##ilerin
program
##miştir
başkan
res
pol
iliş
proj
haber
mut
##af
##laya
bır
##lak
##ivers
##rak
çev
##layan
ulaş
##dem
##ılan
çıkar
bölüm
can
##iversit
##leme
##lerinde
kr
##abil
görün
dav
sı
##ildi
bırak
##olu
bazı
##luk
##esine
##masına
cum
sık
bütün
bile
film
##üp
üniversit
##yal
##ri
bunu
i̇l
mar
üç
gön
ku
şim
15
devlet
##ğü
##üne
##hur
bugün
##iyoruz
##larından
han
##malı
bana
güç
din
##mez
##eket
##emiz
tam
belirt
biri
hep
met
kaç
adam
##ira
kır
uzun
##diğini
##tık
##kat
arkadaş
##cü
##indeki
po
##mal
ik
##lus
##be
yür
sun
##tal
görüş
##usunda
fiyat
bulunan
##ing
ho
müdür
hakkında
12
bar
tamam
##van
eder
man
##gil
##üyor
sorun
##ilmesi
ifa
##esini
hasta
dest
dedi
##sal
dem
yayın
##isinde
##kı
##net
öğret
##mayı
##ayan
##gan
şir
ro
##ulu
olması
çün
cumhur
##şa
dil
işlem
sağlık
sos
uygun
onun
çünkü
hız
##ebil
dikkat
abd
hük
destek
rah
plan
iht
##lantı
muh
bakan
##lıyor
küç
genç
##ebilir
##sam
yem
##lerden
##lük
üzerine
##dum
yüzde
yani
##ide
##yle
olduk
##gı
li
burada
##bar
geçir
tah
##lerle
olay
dok
##onom
kurum
oluştur
üzere
teş
hareket
ayrıca
onu
ber
##çı
ulus
na
##las
##vaş
tasar
eğer
çöz
yılında
##atı
##duğu
mev
şirket
##oğlu
##rar
diy
taşı
artık
##unuz
ren
yor
##mi
ihtiya
üzerinde
for
##ştır
##lerinden
##bol
##ime
kişi
##tım
müz
pay
##ver
##ümüz
iste
##cek
kabul
##gel
katı
küçük
##tığ
##manın
anlam
##sta
##lenen
##bak
##elerin
tr
11
milyon
para
erk
oda
ch
##lum
##cağı
ah
bor
##uma
##lamak
##istan
sak
ekonom
aşa
avrup
##eti
şimdi
ey
eski
gerçekleştir
##ch
öğrenc
yaşa
##ıldı
##ladı
halk
##ızı
ortaya
bilgi
kayn
ediyor
##esinin
sonr
sosyal
kül
araştır
nok
yaklaş
yine
yakın
##sın
mas
##inizi
sonuç
##anın
##ali
##ılır
hafta
beni
seb
kolay
spor
ard
##kara
telef
ifade
si
##ılması
uygulama
gönder
hava
##umuz
hüküm
##bah
koy
dir
per
##ıt
##lım
bizim
##işim
tat
##za
telefon
geçen
his
avrupa
##ge
sıra
tanı
##atan
biraz
##çi
günü
taş
etmek
##eniz
##suz
##duğ
yen
30
geri
maç
çeş
18
dolay
du
##din
hiçbir
yönetim
hes
sar
başar
anla
##maları
cez
özellikle
##abilir
##ilir
herk
ses
##landır
kısa
##acağ
##lerimiz
madde
takım
vur
millet
konusunda
pek
##for
kontr
kav
ankara
##meler
##per
##isini
söyledi
##eceği
ardından
sanat
yatır
nun
rahat
yerine
kez
##madan
gelir
mem
paz
##ort
kol
##eden
kültür
mey
okul
senin
ala
diz
##oğraf
ders
allah
deniz
##doğ
kil
##tığı
##tif
araç
erkek
##gin
bilin
gazet
olabilir
##asına
lis
birç
##şıyor
##may
nde
kitap
siyas
sav
mek
##siyon
fot
##ince
##pr
kontrol
##tem
örn
##cret
değerlendir
süre
##urt
##oz
##og
yapan
kas
fır
ziy
##edef
##arası
ücret
hemen
size
##tin
seçim
##elim
##vur
edilen
prof
açıklama
çağ
yaşam
toplum
yaptığı
##dın
kaynak
herkes
##vi
dak
ask
##isine
hedef
cev
birçok
th
##tim
müş
kalit
yanı
çeşit
se
##ınır
ziyaret
com
dair
##sanız
sey
sektör
##ünün
ner
i̇z
serv
##unca
uç
##bu
##baş
rek
##kinci
yarat
yağ
##ılmış
savaş
bağlı
kah
##ıda
##aj
beş
tic
##ici
##landı
başvur
köy
bildir
2018
##mey
st
##sunuz
vardır
soru
gider
14
dah
##ve
dr
şeh
kut
suç
kapsam
vatan
teknoloj
16
söy
elek
altında
25
##min
sur
model
##ilere
fakat
part
##eceğini
sana
##ternet
##fen
dö
13
uğ
geliştir
##uluk
isim
##kün
iti
id
mis
##ekli
vak
##sik
temiz
la
karş
teknik
##meden
zar
istem
değişik
men
içerisinde
sınır
##oğun
##asını
merkezi
##sak
pat
müca
##müş
seni
tale
ait
olsun
af
##düğ
##ga
##umlu
##cih
tekrar
##rı
i̇ç
grup
yapmak
toplantı
çar
kurulu
yal
gereken
oyn
##yorum
satış
bilim
tabi
##cut
boz
tercih
belediye
ann
##iyi
##pan
dönüş
olup
uzak
ağır
##larıyla
re
müşter
hav
olmuş
indir
mücadel
##br
##isinin
##sil
##sınız
##tiği
müm
##oy
çalışan
tav
17
ona
nda
üniversitesi
##ıntı
##uyu
##meyi
geldi
fotoğraf
sok
belediy
yatırım
i̇ngil
elektr
oran
öyle
öde
renk
##var
##laştır
sin
engel
tl
kara
##ye
##ck
sez
alman
oku
temel
##taş
inan
anlat
##dak
ac
kötü
##ayet
koş
##diğiniz
şehir
os
##ilmiş
aşağı
##diğim
fut
gez
adı
##masının
kork
um
of
sını
##undan
otur
paylaş
teda
kür
ele
ortak
pa
hastan
med
mik
etkin
ail
değiştir
kesin
##duk
sizin
##erj
gece
yemek
uluslar
birbir
##ekk
sahi
fin
zamanda
cin
pazar
##aliyet
##cağını
yeniden
hey
##isyon
##rat
anlaş
oluyor
izle
num
incel
istiyor
mec
##gın
nedeniyle
oto
düny
uzman
örg
yorum
amer
yaşan
ilişk
asl
##lüğü
##fer
tük
##tor
##su
##deş
i̇lk
##ünden
24
çözüm
mümkün
##teş
ana
belki
cam
100
##aber
##ışma
00
çevr
sınıf
veren
yeter
ru
araştırma
##can
kamu
oldukça
kaldır
saldır
ip
beraber
bize
##asının
belg
milli
yetk
mahk
parti
kuru
enerj
organ
##ğa
##hangi
faaliyet
boş
itibar
öldür
ölç
herhangi
199
##lek
futbol
##doğan
beb
##leyen
yüksel
güvenlik
##yo
rap
ayak
pu
ham
söyley
gül
geniş
buna
##miyor
teh
takip
giriş
başladı
##dana
uluslararası
##imizi
çiz
##ust
bi
##ecektir
ila
elde
##aş
konusu
mus
##yanın
##ari
##imde
##mesini
ça
ilç
cumhuriyet
toplam
fik
##mel
bayan
yönelik
bab
##ize
##umu
daki
ali
##imizin
gec
##tiğini
düşünü
kuruluş
net
yöntem
hatır
##lanması
mahal
ikinci
zat
özellik
yapar
##ıza
mez
yi
aday
demek
##alt
ister
rağ
##do
saç
ora
##lül
şah
##elen
özg
##elere
ap
üzerinden
##şam
ga
aras
görül
des
polis
bes
tarihi
sına
cih
dol
may
##lim
yaklaşık
##üb
kardeş
ceza
aslında
dör
meh
##bat
vatandaş
##labil
rapor
##bo
##abilirsiniz
##ısında
giy
olmayan
yara
polit
##lardır
##üsü
rus
50
##lüğ
##elerde
oğ
evet
##laması
ilişkin
sig
rağmen
dolar
çıkan
amaç
##ilerini
##dül
##lanmış
gru
ilet
gerekir
kayıt
hızlı
tep
yazılı
##ğini
##mı
olsa
anda
iy
internet
21
almak
yaban
yaln
öner
##taj
adr
unut
##kanı
erdoğan
##amp
##ate
silah
##eği
##lis
gerekli
hesap
dakika
sürdür
bakım
terör
kira
alış
veril
öğretmen
fay
##yar
gelecek
##set
çif
fen
yazı
##meli
##mayan
yurt
dışında
ticaret
no
##fet
vide
zaten
##ere
##leriyle
##diğimiz
karış
amacı
##üy
##ent
yardımcı
huk
sam
##tiv
iddi
yalnız
##mıyor
teşekk
şark
şöyle
##ınca
parça
##ilerine
gerçekten
##mir
hukuk
ölüm
dar
##cısı
##vet
firma
##unuyor
ortam
cumhurbaş
osman
boyunca
ekip
adım
temsil
bal
yaka
##uştur
##muz
##hale
hayır
yaptığ
başbak
yı
malz
##eyim
istiyorum
don
2017
nak
##ant
web
nokta
##kaç
piyas
kurt
bilgis
banka
zorunda
beyaz
##masında
doğal
gar
oyuncu
teşekkür
çocu
gerçekleş
sezon
aldı
##ısından
tab
##elerini
olabil
şart
##eğin
##ıyla
hatta
otel
##mesine
hik
görüntü
yat
ke
şekl
çeşitli
det
sıcak
devr
yarar
tu
##sat
adet
##imize
yolu
derece
##lanır
##efer
##izm
değildir
verdi
yoğun
kalan
co
dolayı
nit
birkaç
##diler
edin
edecek
bilgisay
yanlı
hükümet
##meyen
##yacak
yüzden
örnek
zarar
biliyor
nor
##esinden
##cılık
izin
##lemek
kaf
##gen
mağ
pers
fayda
cevap
##izi
yapıyor
sürec
sp
kullanıcı
##dığımız
##labilir
durumda
str
i̇nsan
sınav
##inize
gerekiyor
hoş
ihtiyaç
tart
oper
22
giz
yapılacak
ra
tarihinde
bat
kalk
geliyor
##ina
mot
halinde
sürekli
yo
doktor
cen
isteyen
benzer
cihaz
üretim
be
tip
##mişti
savun
ekonomik
kons
mevcut
demir
yabancı
hayvan
ten
mehmet
le
##meleri
##lif
hale
vardı
lider
sem
to
aşk
biç
sanay
sahibi
##matik
dost
##dis
onlar
yarış
##üc
kullanı
##inci
ruh
##liyor
yanında
##vek
tasarım
yetiş
hangi
pr
sonunda
kitab
canlı
##tep
kuz
##mıştı
cid
##dip
beklen
çift
asker
deki
the
##menin
karşılaş
kuş
sistemi
başarı
ödül
##elerinin
mesaj
##pit
dal
sol
##ton
davran
dünyanın
tüket
çoğ
verilen
fil
yık
##talya
##dığım
talep
sayfa
fon
şi
##ilerinin
geçmiş
##mat
##madı
bilgisayar
##lilik
kapsamında
##manız
23
vü
##isk
dayan
br
it
fat
dahil
demok
##luluk
##lâ
dağı
türlü
sizi
dört
##tay
##ırı
resim
kent
imza
##sen
konuda
##ült
tık
aydın
diyor
sabah
##larım
kre
##dıkları
anad
yıldır
akşam
şeyler
sözleş
yazar
sayılı
basın
tra
müzik
##atür
oyna
sayesinde
##ov
person
i̇zmir
kasım
soğ
ederek
##ýn
##ele
milyar
olmaz
eylül
kalı
belli
mutlu
i̇ngiliz
yum
emek
çıktı
tespit
##esel
stan
sebep
laz
nis
bundan
kaybet
servis
##üğ
bakanı
##yum
ettiği
##enek
konuştu
##lin
kab
ateş
kendini
mart
başarılı
güçlü
karak
##asyonu
şeyi
2016
milletvek
şamp
##şehir
##dığınız
##dız
##larınız
##ast
kilo
ülkemiz
dos
işlet
çer
##lanma
bizi
götür
siv
##üman
yılı
##layacak
40
##ıldığı
sırasında
insanlar
##rah
başbakan
##iran
##dek
yıllık
gol
belediyesi
yanlış
##ke
olmalı
pan
detay
bank
rak
anadolu
kir
ilan
and
güneş
açı
temmuz
ülke
yuk
##iliği
puan
emin
ocak
kişinin
##iğ
hastalık
##üf
açısından
zen
çalışıyor
dek
katılım
##lığını
list
gök
alır
##ela
lig
tesis
adına
##ılma
aralık
yıldız
##ışı
bakanlığı
bunlar
##go
yu
##osu
kanun
özgür
##eder
artır
yoksa
##pa
000
pak
dile
yerde
min
##omo
nedenle
fran
kapat
video
##mer
fi
yaptık
sonucu
ata
##lamaya
arada
müh
##hbet
##yas
##ıyorum
ekim
##düğü
doğr
nef
##izyon
tama
olacaktır
yasa
nerede
bilgiler
başvuru
##luğu
yere
gid
mahalle
sh
##imin
kuv
##layarak
birliği
mark
##ân
kullanım
enerji
eser
kredi
resmi
direk
üz
kapı
sorum
düzenlenen
##av
tamamen
##ebilirsiniz
sohbet
##medi
müs
şampiyon
##şık
##teg
##ğın
şans
go
##gar
yaptır
baba
##alım
akıl
tec
##luğ
##elerine
vermek
##anıyor
bulunduğu
verir
elektrik
günlük
##edik
##stafa
önceki
denet
##ladığı
yeş
##hal
sayı
##emi
##eyin
dep
alıyor
##eceğim
güney
hen
onları
sab
mayıs
mustafa
belirlen
haziran
fr
ünlü
##dük
müdürlüğü
hâ
pas
siyasi
bağım
##ırım
orada
altın
verdiği
geçer
diş
bura
##dığında
##spor
aile
nokt
##ısıyla
key
tanım
itibaren
teklif
salon
başına
kart
##ia
seviy
##inc
motor
##emez
##atif
##bı
##of
28
kullanılan
örgüt
arasındaki
##ama
##evi
inşa
şeklinde
##üncü
hala
##üst
mücadele
##ilerek
##iliğ
##ılıyor
trans
pey
adlı
##mamız
##fak
##unan
mobil
##rik
##ısını
normal
işaret
2015
##ütü
irak
##mayacak
toprak
tay
##elerinde
gür
bağlantı
aldığı
##diş
##lığın
güncel
##esiyle
bebek
##tıyor
##dikleri
ciddi
pen
satın
i̇slam
##lerce
##malıdır
varsa
araya
bayram
tarif
##liğini
##od
##lıkla
şiir
düzey
pet
merak
düzenlen
kims
##yız
##fi
etkil
##iyeti
eki
durumu
malzem
marka
öncelik
##mada
makin
meydana
##üle
sitesi
us
edilm
beri
profes
kimse
lüt
sel
çat
anne
alınan
27
çal
hayal
##dal
koru
26
anal
mahkem
günümüz
meslek
kanal
day
kuzey
##ünüz
alb
soy
mon
çevir
chp
tör
##siy
yukarı
form
val
##uru
amacıyla
hisse
edildi
müdürü
olmadığını
atatür
proje
tehlik
rol
##rafik
##diğinde
mekan
ahmet
oluşan
nisan
böylece
haline
vaz
not
cumhurbaşkanı
##one
alacak
##ydı
teslim
##ati
balık
onların
aracı
##lamaz
eğlen
##iydi
##eceğiniz
düşük
##ülen
çan
##lığa
##neği
ağa
cep
acı
sanayi
katkı
kararı
##isel
ark
değişiklik
kuvvet
yapma
borç
##ücü
##ni
atatürk
yana
prob
otomo
198
ni
##sine
sene
alma
medya
lira
##çev
##ümü
isten
süreç
##manı
##mar
##nun
##brıs
keş
kıbrıs
günde
##li̇
ic
yoktur
##ınızı
##olojik
##gisi
gerektiğini
2014
boyut
koşul
i̇şte
##lulu
personel
çin
ihtiyac
##düm
şarkı
test
vurgu
sayısı
esas
uğra
##dıktan
##ova
##laka
##iyim
insanların
##lanıyor
##altı
ordu
iler
defa
çerçev
yapacak
##leti
##to
görmek
yeşil
etme
sonrası
fet
müsl
##aray
yaşayan
eg
##üph
ediyorum
bunların
kişiler
kok
29
sefer
##tiğimiz
perfor
işi
etkinlik
##ade
kullanıl
gay
problem
mük
eksik
##ras
tedav
hap
olmas
tarım
buluş
beğ
##lıklı
##ale
##etik
iddia
bahç
çiç
##50
##co
şüph
##üme
çarp
programı
##meniz
süp
fakült
dönemde
##lanacak
öğretim
öğrenciler
##ucu
uyar
bulundu
yeterli
cil
kampan
lazım
zengin
uc
buraya
hed
me
edilir
tedavi
performan
sunu
içine
altına
hır
fer
##amız
##uar
##oloji
birinci
dava
nes
ilaç
i̇yi
birleş
##ısına
lo
yapabil
mıs
##lerdir
ıs
öğrenci
ayar
##yım
sayın
sarı
sayf
risk
amerik
##cer
almanya
##cağız
##cağım
doğu
reklam
meclis
numara
başlayan
memnun
şid
##bilecek
miktar
fikir
temsilc
komisyon
##rol
ker
##onik
rusya
üyesi
asla
aka
halde
tv
eve
ayında
ileri
bazen
##veriş
kural
türkçe
onay
##memiş
çocuğ
jo
kadro
idar
31
sonuc
##par
girişim
hikay
operasyon
ekran
sevg
amerika
##lasyon
##tığını
psik
önünde
danış
düşünc
##lığına
sokak
##ımda
##ite
osmanlı
##ansız
derin
eleştir
stand
##line
##eci
tarz
olmaya
lütfen
mühen
fener
##dun
##rac
deste
saldırı
arz
ül
ton
sıkıntı
peki
##dam
##teki
kayde
poz
lim
##duğunu
çay
ettik
sonrasında
kırm
kamer
birey
kaliteli
lisans
henüz
##inç
altı
davet
edece
efen
belirten
yargı
döv
anlay
müslüman
ücretsiz
ef
hizmeti
##üler
uçak
içeri
aktar
doğum
antalya
başında
##ınıza
söylü
##eceğiz
##orta
2013
ulusal
nüf
olursa
##lari
boğ
tıp
aj
##deniz
dünyada
##işleri
##lisi
artış
yeri
dışarı
##iliyor
kendisine
ler
ettiğ
##gör
karakter
fes
sine
bitir
onlara
ağust
##ku
##cılar
bahis
##bur
kemal
yönetic
##inizin
bence
##say
##ımıza
yaşanan
fiz
bulunmaktadır
mim
bölümü
##med
sizlere
zam
etkili
huz
park
##son
bol
pla
kurtul
##ilecek
etik
##enler
eylem
##ratik
##imli
sağlıklı
fırsat
yapılması
60
şubat
rad
##best
işe
dağ
kup
aylık
##muştur
barış
bulunuyor
ayır
eur
bursa
i̇ki
kem
ted
ağustos
##lardı
##büs
yunan
hol
hisset
roman
yandan
##evizyon
değerli
mutlaka
düğ
köp
durumunda
##lenme
2012
beğen
ant
##ilendir
yerel
benz
başlan
tabii
anay
dolu
etmiş
##ırken
sil
yardımcısı
##terek
eşya
##etler
grubu
büyükşehir
##i̇n
oyunu
dolayısıyla
araba
##mm
##arım
komut
yerleş
##geç
olmadığı
yansı
kısm
zey
tez
##niyet
def
serbest
güm
##sef
milletvekili
esc
hesab
##ene
sırada
çö
##rail
far
##ess
süt
iletişim
##istik
hizmetleri
kıy
##gam
mat
##sem
##anlı
del
kurtar
edilmesi
çocuklar
i̇b
gıda
yapacağ
görüyor
tartış
##yonel
##hi
##rin
tutuk
##ital
i̇k
yönetimi
500
yavaş
parç
##ura
açıklamada
##ger
##ımızı
rahatsız
neler
##eyle
bon
dışı
batı
siy
##dr
arama
müda
anayas
suriye
düşünüyor
işte
bölge
bed
alışveriş
moder
##seniz
escort
çevre
kendine
veriyor
##atör
politika
##zon
##lıklar
##ısının
başta
kelim
lar
turizm
yetkil
muha
##bin
alanı
lik
##kenin
##cık
##meni
##ult
beşik
##taki
##imizde
##ullah
çoğu
tatil
##ılmaz
##larca
siyaset
firmaları
erken
üçüncü
enf
üye
kateg
profesyonel
kategor
tane
koca
car
##asıyla
##larınızı
kış
sanırım
deneyim
süper
duygu
##bahçe
bunları
esk
##tere
ürünleri
kaydet
mur
otomobil
ez
##eliğ
##str
ederim
pop
hüc
##ulan
teknoloji
teb
vergi
meş
konuşma
naz
##bay
alanında
aray
tor
ces
sap
seçenek
doldur
sayıda
birisi
çiçek
piş
örneğin
tahmin
askeri
televizyon
bağımsız
##elerden
standart
##tiler
##gaz
yada
çalışmaları
##mayın
belirtti
kaldı
akadem
sonraki
eğitimi
taz
kel
bilir
yürüt
##ıştır
finans
yayım
##eksiyon
yaşında
mühendis
##ko
##âr
##dit
yapılır
##miyorum
##ulması
gazi
##ilmiştir
##umsuz
ref
konut
plat
sava
sağlamak
adres
sim
duvar
harika
yapmış
politik
modern
şiddet
olun
sip
35
heyec
öden
faiz
##yıl
mor
kişisel
galat
kırmızı
sert
##nek
samsun
##masından
##sini
madd
başlat
beşiktaş
açılı
i̇srail
op
ödeme
nakl
ce
karşısında
yarı
fizik
bankası
arac
atı
##asaray
##lıkları
##tuk
##imleri
siyah
şik
huzur
##siye
şehit
##yse
i̇ran
ilgi
belirterek
kesinlikle
kulüb
galatasaray
##lığında
##amet
kalp
tuz
ir
##lamış
##artesi
hafif
evde
çap
kana
ülkenin
##dıklarını
katıl
arası
köş
tatlı
##ımızda
##dikten
por
##leyi
kum
##edim
derneği
aya
güc
fiyatları
##sim
fakültesi
yerleştir
red
##ileş
baskı
##tt
##tern
gem
##larımızın
strate
kürt
alanda
gösteren
197
sigorta
paket
şiş
zev
##yen
##acağı
##har
sul
##muyor
bina
new
##emin
yanıt
gördüğ
emniyet
taşıma
vücu
akp
yiy
sivil
kendisi
stratej
dis
genellikle
kılı
##ä±
sağlar
##asından
##lenmesi
söylüyor
##izasyon
fenerbahçe
##sü
##laşı
alına
peş
saha
##şey
basit
yerinde
prot
##onya
depr
##edeki
tecr
uygulan
konum
##ze
hata
nedir
##lediği
orman
amel
##larımızı
##layıp
tanrı
yaparak
olduğuna
tok
##tarı
bilgileri
##esiz
beden
yah
şeker
takdir
##ımızın
bö
hayatını
müşteri
##sas
asıl
ec
##racat
sorumlu
dosya
yılın
olumsuz
gönül
şaş
olmuştur
##anlar
ettir
odası
gr
giden
bür
ale
ikti
kop
öncelikle
##undaki
toplu
kans
gelin
alarak
edeb
kala
trab
##rika
düşür
döneminde
gizli
##ülü
kapalı
çıkış
i̇h
dök
##ündeki
işbir
yapmaya
45
peygam
##20
öne
ge
fab
sona
2006
##tepe
yolc
musun
bec
reh
kral
tutar
2011
##ınızda
sağlayan
kong
yapım
##emek
çelik
projesi
korun
bet
önüne
almış
##abet
##laşma
kanı
##esindeki
cinsel
##lav
davranış
##ps
##imler
namaz
işç
hepsi
kavram
i̇m
hakkı
##yet
göç
##lendi
##liğin
80
i̇ngiltere
##nam
şer
##lal
##liğe
lez
##i̇r
zorun
##liğinde
##iri
yalan
hayata
##emey
feder
##form
##mür
90
fransa
mill
##maktan
cad
yarın
vazgeç
##anet
##amı
##inizde
online
sipar
bende
alıp
##diklerini
sermay
##aza
##başı
adalet
ucuz
öy
hüs
sahn
kendisini
koruma
##sk
arab
yalnızca
lin
##maş
peygamber
trabzon
##dat
##raman
yürüy
ihti
##elerinden
yılda
gide
duyur
kullanarak
sorunu
yetiştir
##rek
##ledi
eşit
bom
aşağıdaki
kasa
##elt
yıllarda
tiyat
05
saf
arttır
##layın
##tey
etmeye
başkanlığı
olumlu
yaşındaki
##emmel
gören
##kk
performans
festiv
yılmaz
taşın
##malar
içi
soğuk
i̇ngilizce
saygı
##lerim
##zet
şen
atan
biliyorum
##elerle
aşırı
kıl
tören
##sinin
km
herkesin
nur
etraf
transfer
##ebilecek
70
kale
ortalama
gerekmektedir
edebil
azal
##öğ
ışık
yazılım
edebiyat
sonucunda
blo
üniversite
geçiş
mükemmel
##ly
##yip
mod
geçtiğimiz
kahraman
takımı
yüzyıl
##haba
kadınlar
kazandır
kli
kağı
##lığının
##ons
edip
insanın
boya
##gal
##ildiği
##uç
##ğan
tır
##irken
avuk
çalışmalar
hac
##mesinin
tavsiye
##bis
dakik
sik
sipariş
piyasa
hanım
tiyatro
göl
oranı
##ıma
##arken
yasak
demokras
merhaba
zira
misin
çor
##ekim
##tuğ
başlar
hi
yola
yas
gündem
##sizlik
klas
##car
kaçır
kahv
arap
savunma
platform
ww
soruştur
gelenek
##no
sanki
36
##ersin
üm
tren
grub
trafik
##larındaki
##lata
olmasına
##beri
ediyoruz
cer
##he
isimli
yapıldı
futbolcu
doğan
##diğin
##iyiz
sitemiz
öncesi
01
edilmiş
kamp
vit
yatak
##hane
##lanmıştır
günlerde
partisi
kriz
memur
tanış
nüfus
##emiş
elektronik
aks
##ılmıştır
##elidir
taki
196
sultan
ölçü
kişilik
önümüz
port
##ahat
elbet
##cam
fel
##lenmiş
##anan
yararlan
mic
arkada
servisi
##antaj
akıllı
çıkıyor
i̇lçe
##cusu
##lerinizi
belirtilen
##ii
##orm
##latı
##iyorlar
##liğine
if
cem
##iyordu
konus
giren
##book
hd
dam
sü
diren
nden
meydan
sürede
keyif
amerikan
şar
##iği
yaygın
##ogle
##cilik
anlamda
##ilebilir
mel
gücü
düşünüyorum
www
kapas
düzenlem
buy
32
##ros
##lardaki
yaşlı
öngör
mezun
civ
bahse
ayı
kızı
rez
biçimde
lu
##ındır
##mur
##hp
##ayıf
edi
süresi
hus
ameliyat
kayb
bilinen
google
durdur
zevk
karıştır
geçti
##ham
olmadan
zayıf
endiş
##isinden
düşman
##iyer
site
birden
va
##desi
verecek
##ner
##urken
odak
nedeni
katıldı
##yer
ima
mimar
##nu
mahallesi
##uldu
dizi
şub
con
##ry
uygula
##tis
##dy
otobüs
##uyorum
birini
olacağını
##üstü
##âh
ürünler
doğrudan
güvenli
kus
09
uyan
istediğiniz
##ho
yav
##yası
ide
neredeyse
birim
rest
suyu
2010
edeceğ
sebeb
umut
filmi
harca
gelmiş
aktif
kitabı
##ciler
dahi
yaşıyor
sahiptir
açıkladı
##isiyle
çab
fransız
ondan
gerektir
vücut
##dağ
etmektedir
ism
##irler
sk
##landığı
alk
murat
yüzünden
##alim
##mamış
ortadan
02
van
gur
kök
önlem
çoğun
aca
çocukların
tablo
ex
kaya
##süz
buradan
olmasını
üzerindeki
üstün
##liler
avantaj
ndan
mesel
anah
jap
acil
##cil
koç
ters
hasan
vek
metin
geçerli
çaba
##erseniz
vakit
duyg
alım
hz
şef
##cının
rum
euro
gali
adını
cilt
sanatçı
zir
win
yed
ağaç
##kale
söylen
temin
kayna
haft
##yap
ifad
##ersiz
##ron
##sinde
detaylı
##ımın
kod
##lır
2005
adana
anlayış
zih
taban
##landa
çeken
kaza
imkan
##sında
istih
krit
cm
bekliyor
ihtiyacı
çak
önceden
etkisi
kişilerin
buz
kaydetti
##zi
##ısız
karan
##eral
savaşı
##iyan
komp
##fat
##urum
##erv
##memek
cuma
nitelik
olduğumuz
ısı
harit
anlamına
##üny
öt
derec
bakış
yerini
getiren
##öğret
33
##ağı
diyerek
ülkede
seyahat
itir
işle
bl
eb
maliyet
##rahim
yıldırım
i̇kinci
bask
rakam
##imden
##ire
çıkarı
sorgu
depo
##ws
##abilecek
dokun
edebilir
##dığına
etmesi
işin
elbette
sağla
günümüzde
ekonomi
kiralama
imk
pil
fatih
rü
mali
restor
hakları
bugüne
##inal
rece
##layıcı
##memiz
misaf
##his
otomatik
kullanımı
veri
ihracat
kendilerine
ney
ilgilen
kısmı
##ıyoruz
gidip
şikayet
bölgede
gazetec
şun
hoca
diyen
##lığıyla
istik
##masıyla
gitti
mesaf
özellikleri
köpr
müdahale
bulunma
verildi
deng
##hat
sö
albüm
2004
ağrı
ticari
belirli
avukat
direktör
birik
hakim
farkında
##ayla
bahset
##udi
çerçevesinde
ayrıntı
posta
##rim
##çuk
##meyecek
hazırlık
he
##çiler
cas
seks
hit
dedim
cumhuriyeti
pkk
vb
dünyaya
büny
başlangı
##çak
bitk
##tın
ep
dekor
##her
olanlar
cüm
yıllar
kör
##amaz
tehdit
kampanya
tipi
##ulur
deney
kanunu
sağlayacak
##lerimizi
tecrüb
akl
diler
konya
kurban
##ti̇
biy
hediye
##ınar
verilm
üs
içerik
danışman
##mediği
##aka
final
##ds
bağış
ert
##köy
uns
ade
konfer
giderek
##lanarak
pozisyon
recep
toplumsal
katılan
petrol
pren
modelleri
ettiğini
##ation
analiz
ajans
zeytin
sistemleri
olduğundan
sta
##kel
haberleri
hin
sorumluluk
doğrult
##ator
özelliği
istedi
şif
usta
sunuyor
iyileş
yerli
kulak
metre
dip
##ulmuş
yasal
anlama
300
onunla
becer
terk
34
mısır
##ıklı
birinin
##yüz
binlerce
sağlaya
acaba
yapabilir
altern
ri
sonuna
sevgil
##tacak
##fı
jan
gelip
köpek
ayakka
kulüp
söyleyen
anayasa
duruş
iptal
i̇nternet
face
heyecan
dışişleri
ofis
başlıyor
##kar
vad
eriş
falan
##larımıza
##erler
önümüzdeki
##bal
rast
iktidar
08
##mail
yapılmış
hapis
##10
kayıp
serg
##düğünü
erz
kred
istek
##ud
##hn
sinema
anti
olası
est
moda
vermiş
almaya
müşteriler
##diniz
##erken
##ünüyor
düzenli
öte
sinir
diyar
yü
ölü
parçası
sakin
eklen
kamera
okuy
##ong
cumhurbaşkan
düştü
##land
gençlik
mutfak
hayatı
açıkla
onur
açılış
fu
zek
##lıkta
eh
dey
2007
içeren
gelişim
##ebi
##vik
alternatif
çet
getirdi
benimle
kıya
i̇dar
duyar
kapasit
##ata
yayınları
yenil
03
##ino
2000
bis
insanları
kaymak
yürür
tayyip
usul
çağır
hazırlanan
kalma
sabit
arkadaşlar
ja
##üyle
içindeki
ince
i̇brahim
istedik
görsel
bilimsel
bununla
##ığ
yumur
mir
bozuk
##zu
koc
tit
uyum
i̇lç
kalın
ilçesinde
yaparken
i̇span
ins
bölgesi
babam
işler
bölgesinde
taşıyan
olanak
ülkemizde
bula
geb
##qu
##istin
##ayım
göğ
evren
oyunları
boğaz
suy
##türk
özen
tarihli
süren
##arında
##onu
sağlam
doğrultusunda
verme
##doğu
zaf
kesim
##ond
yapımı
olduğunuz
araz
dans
tw
kanıt
örgütü
denetim
##işi
saray
oğlu
güvenilir
başken
ayk
nün
çalıştır
kalite
##öğretim
zamanı
organizasyon
cok
##ht
küresel
endü
bilmiyorum
kurulan
##tion
##lor
##makla
hastanesi
##embe
##ýr
üyeleri
pi
hüseyin
süreci
karşılık
şa
mavi
kurumsal
rüya
yur
kılıç
kurumu
bekle
dönüştür
##eğe
sonuçları
bilet
ömer
şimd
elbis
turk
kere
##yken
##isin
##tedir
selam
ağz
geçici
kimlik
geril
fiyatı
işlemi
##eğini
##emen
vi
zamanlarda
oldukları
ödem
izley
evlen
dikkate
konak
##dün
ufak
gidiyor
şaşır
ligi
zorunlu
facebook
maden
kişiye
büyüm
mesela
kanser
##düz
dij
yetkili
##teşem
görünüyor
##uluyor
##th
##celi
şık
kimi
tanıtım
kalır
06
temizlik
##bi̇
devletin
bedel
tepki
##tl
tun
tanın
##dil
olağan
yör
müsa
gözlem
gazete
ramaz
önemlidir
lir
muhteşem
##luluğu
hassas
##rem
##iklet
set
yönlendir
55
benden
yolcu
muham
kilis
2003
ettim
dönemi
çeki
rab
tb
2009
##bilmek
##cisi
2008
dernek
##liğinin
şirketi
fık
2002
değişim
teşvik
##acağız
yedi
tartışma
metal
inşaat
adamı
##lacağı
##stit
şeyin
gitmek
vir
07
kadının
sağlan
mit
radyo
büyü
48
renkli
uğraş
maçı
##ilerden
lezzet
geleceğ
htt
üretic
kendilerini
##usunu
koor
hızla
bı
değeri
daire
##jen
süs
sağlığı
dijital
nefes
ob
yumurta
çalışması
ib
yarım
refer
##laşıyor
toz
gerekç
kanunun
lok
kendimi
sendik
misafir
mikro
kalem
##leriniz
konuk
aşağıda
ayrıl
demektir
sebebi
##bel
öğrencilerin
desteği
##müyor
##pe
lab
muhtem
##oyu
babası
rekabet
38
değilim
çıkacak
görüşmeler
##imizden
alınması
bulundur
geldiği
coğraf
tedbir
04
##i̇m
tanıt
##biliriz
##lıdır
##sit
mhp
eşi
açılan
##sını
dua
kültürel
hücr
rüz
##allah
ismi
kapan
anlaşı
bm
kalb
##rom
niyet
dini
görülen
yangın
##inda
şube
37
görme
halkın
sevgi
değerlendirme
sevgili
uzat
ilginç
klasik
##eliği
##anda
##leşme
alındı
istediği
##biliyor
ekley
gerçekleştirilen
donan
ani
##mesiyle
mür
evden
dolaş
masa
etkilen
mini
##ff
##lemeye
uyarı
yurtdı
ran
genelde
##diğine
birer
güzellik
nakliyat
yaşaya
##iner
##are
sizler
eleman
bilinç
yeme
ürünü
etki
çanak
sekret
anahtar
konferans
paşa
tasarımı
##ğını
uygulaması
ca
okuma
##bey
gösteriyor
girdi
görür
yumuş
malzeme
gözalt
demokratik
##enk
halı
kağıt
blog
ediliyor
##duğumuz
üstüne
çağr
##emesi
yel
kadınların
lev
anı
söylemek
belgesi
esn
ulaştır
idi
i̇liş
popüler
başlangıç
bütç
##les
kafa
##cağına
sün
makam
##ınma
pap
##vel
i̇şlet
sahib
taraftar
amaçlı
kurs
##i̇k
seyir
kıyafet
aldım
##şet
denk
bilgilendir
sevin
yaşadığı
##ksiyon
ilişkiler
takv
yunanistan
##bank
ramazan
hayatta
iken
tali
##nik
altyap
dalga
sıf
##mara
boyu
yedek
azalt
itibariyle
mün
sıv
şük
havuz
malat
birşey
##asi
kavuş
##leyici
istiyoruz
geleneksel
app
olmayacak
çekil
günün
##di̇
kullanmak
yaptıkları
sir
darbe
enflasyon
yağmur
##kur
kullanılır
kulübü
stat
75
unsur
almaktadır
kilomet
edilmiştir
tom
sermaye
görevi
dakikada
dür
44
teşki
düğün
uçuş
65
kayded
vah
çocuğun
##tanın
nı
seçen
ederken
işlemleri
birbirinden
##uyucu
aley
diyarbak
##okul
##leri̇
kays
koordin
##bon
yolunda
deprem
##distan
fonksiyon
mate
söyler
##luluğ
oranında
##dukları
kâ
tarihleri
bulmak
enstit
tepk
tim
yenilik
##laj
##ick
konser
komş
kartı
##arya
evlilik
sözleşme
ayakkabı
planı
uğur
##ment
yürüyüş
dilek
##gü
avust
##bb
##liyoruz
##tak
##usal
herkese
##ülmesi
nik
##amik
mezar
takdirde
gelişmeler
emir
bulunur
birleştir
halen
##sey
suret
mül
faktör
##sh
alabilirsiniz
##gesi
değildi
ilişki
dinle
kaçak
vs
azından
ekib
yoktu
##isa
##acağını
##zan
esna
##manızı
rakip
özür
mahkeme
asya
##wn
ülkeler
##ilmektedir
diyarbakır
kırık
gümüş
##i̇z
cinayet
satı
##üldü
konuşan
##ever
benzeri
numar
##ard
zirv
sürücü
i̇sv
beyin
basket
kimsenin
bazıları
ışı
nat
kısım
antren
##isiniz
ihale
##nan
ilçe
##mekten
i̇çin
kaynağı
okulu
elinde
fo
biçim
##anacak
hissed
koltuk
beyan
39
sıkı
##ore
york
olmayı
##meyin
tap
modeli
##antep
cevab
amac
pe
i̇talya
##ılmasını
##nak
güvenliği
düzelt
izlen
işbirliği
olduklarını
kullanma
senar
##des
mevzu
##i̇t
şunları
çıkart
ph
yanına
##sına
##gah
sorunun
diyet
rej
##melidir
açıdan
##lılar
korku
yönetmen
aralarında
milletvekil
maddi
garan
##müştür
##jinal
##alan
kos
sağlıyor
bez
##i̇l
lük
sigara
##ırlar
potan
42
edebilirsiniz
pişir
##dılar
evi
şunu
anlatan
##ıklık
anlaşma
##ınızın
##demir
windo
doğa
emekli
##itir
tev
sözleri
inci
devleti
##kaya
nih
potansiy
aktiv
##ağa
belirtildi
şehr
##melik
uzay
maddesi
gözaltına
isti
vol
hür
yüzey
şeri
müst
sorunları
edilecek
fuar
taleb
##parator
##stik
erkekler
döviz
devrim
ag
beklent
bunlardan
prens
##duğum
gu
##ülebilir
cami
komutan
##yasal
bakımından
gündeme
##madığı
##ılmasına
işçi
havalim
##ğında
bağır
gördüm
seninle
##sızlık
yaklaşım
çey
teor
##ruk
iade
yarışma
yaşar
##kın
yoluyla
milliyet
incelem
fiziksel
yiyecek
oraya
##ity
bahar
##işehir
##okulu
yönünde
adeta
düşen
##mos
önde
komisyonu
arkadaşı
noktada
cerrah
2001
gazetesi
mağaza
##maması
iyice
##lý
##yu
nu
hadi
hediy
yerden
##ıf
sof
süley
karadeniz
lideri
endek
imkanı
göm
karşıya
##mesinde
##biy
yılından
sus
filistin
gaziantep
istanbul
##cağınız
je
olduğum
##ysa
dük
53
##liy
pir
çocuğu
sözc
##aseb
müzak
##ding
müdürlüğ
##lacaktır
##ğin
yolda
alet
##iki
##lerimizin
güçlendir
sevk
##acağım
yukarıda
windows
başlayacak
karşılaştır
##liliği
##eceksiniz
sertif
yaşat
üstünde
yayınlanan
köyü
okun
##so
oysa
bakın
yaptım
çocukları
yapısı
insanlara
olmadı
##uyoruz
varlık
##şi
kalmış
sm
tbmm
wil
cumartesi
john
uyuştur
##sör
halka
##ikat
##ğına
durumlarda
silahlı
bilgiye
süleyman
47
yeten
özet
mahkemesi
sch
demokrasi
incelen
##po
birbirine
seri
##ilyon
husus
gördük
rehber
ekibi
slo
maaş
400
özgürlük
anlamı
adayı
##dığından
besin
kupası
nem
las
haberler
üstelik
raporu
##rag
derg
##12
hâlâ
kursu
##lıyorum
##pt
doç
##paşa
##şe
gösterir
vo
kullanan
numaralı
yenilen
gerektiği
aykırı
parmak
olsay
bakalım
verilir
yıllardır
ortamda
vitam
##gs
deri
lisesi
##rama
##tum
verg
haklı
##rük
##eceğimiz
wor
##ruf
hekim
telefonu
işleri
##sup
bayrak
##ell
görünüm
194
kilit
kariyer
cenaz
yüküm
muhammed
##olog
olacağı
##ükle
garanti
cezası
üyelik
diplo
maz
kast
üretimi
geldiğini
##resi
siteleri
vermeye
lit
niş
##tılar
kaps
adamın
düzenleme
##masın
kütü
bireysel
dili
istiyorsanız
fazlası
hadis
kullandı
ır
##enn
##ji
parla
düşünce
43
link
ege
##biyet
##kon
uyku
kimyasal
çağrı
dağıt
##masyon
niye
gereği
yaşamak
oldum
##lüğe
##utu
dönüşüm
##isti
şeyleri
##ği̇
##ray
##gat
vali
kazanan
çanakkale
arş
ölçüde
cennet
mersin
bildirdi
şahin
rö
muhaf
tasarruf
46
sonsuz
##amıyor
terörist
çekti
başı
bölümünde
demiş
akdeniz
duruma
yetenek
zamanlar
ilave
mutluluk
felsef
##ılıp
kolayca
##ilerle
insanı
ulaşım
andro
oynaya
##şallah
fetö
tü
olmalıdır
##tc
büyüme
alak
ast
kelime
firmamız
##tup
##ıldığını
##yol
##dınız
toplantısı
gelişmiş
kızıl
hot
algı
##bek
##larken
belirlenen
disip
kargo
kahve
uça
değin
kahvaltı
alınacak
olamaz
halkı
indirim
193
yönetmelik
bizler
sever
günler
41
##kal
sc
inc
##ilerde
##esi̇
esnaf
hip
lan
bilen
fan
festival
##gılan
burası
pratik
##larımı
tı
tehlikeli
195
yerlerde
malatya
150
arzu
verilmesi
gurur
mobilya
##ıldığında
dalı
##don
##illa
yönetmeli
pam
abdullah
uyuşturucu
pazartesi
jandar
##ilerinden
öncesinde
gümrük
##int
şeye
ii
meml
ul
ur
##memesi
qu
bilmiyor
yerler
manz
##tığımız
yürütü
##cıların
sessiz
gösterdi
##liliğ
yitir
matematik
çam
hasar
mektup
##day
hatırlat
ekipleri
seviye
log
paylaşım
sporcu
bomba
olayı
nev
ulaşabilirsiniz
toplan
##23
##laz
imkân
zafer
yazık
afrika
selçuk
olmaktadır
çik
##anız
anlaya
karma
##hone
görüşme
getirmek
sıfır
tuş
##ograf
##ahh
protok
kaybol
pazarlama
##lerindeki
alkol
##cılığı
##lerdi
gecik
toplumun
##bot
rezerv
lond
hazırla
##asındaki
çıkmış
atık
ziya
etmiştir
bütçe
54
##ks
yapabilirsiniz
açma
neyse
efendim
türü
bulama
tad
memleket
genelinde
kaçın
itiraz
nec
##lete
soruşturma
nam
ful
yakından
post
hakan
##labilecek
defter
sürü
i̇nşa
maale
şehrin
sektöründe
kumaş
bilgisi
maalesef
muay
lı
##ilmesini
meden
##veren
paris
sürece
prote
ihtimal
klima
sonuçlar
neh
ekmek
zamanında
meyve
temas
saniye
antik
zinc
##itesi
yaptığını
maçında
##ülük
hakem
nefret
##tıkları
##eceğine
kaş
vic
okur
ağız
bodr
mm
##isyen
teşekkürler
##ori
annem
eğil
cins
salonu
mail
##leki
dayalı
gençler
nesil
sebebiyle
bünyesinde
##tılan
##ülür
sız
android
sunan
ideal
mac
kazandı
geliştirme
##iyorsunuz
birinc
haberi
kütüp
sahne
##lesi
##ub
##cası
sıvı
##atu
edildiği
buldu
alanlar
ailen
verim
yükselt
adlandır
tedavisi
yakış
sözü
gayet
coş
labor
istedim
müte
hayran
49
vermektedir
ödülü
##hum
başlama
vakfı
##mesinden
##ser
başlaya
göğüs
bos
maçta
muhale
##mıyorum
bileş
##vu
rektör
beslenme
biridir
konularda
isterseniz
alınarak
panel
dig
bodrum
istediğim
##teyiz
##sızın
##kır
##usuna
suna
##lerken
egemen
kutsal
bro
protokol
yaptığımız
yolculuk
çıkara
kenar
iğ
##leyerek
sırt
tüz
tal
çalışmak
eğlenceli
salı
düşünür
##duğunuz
aracılığıyla
eskişehir
civarında
kamyon
damar
filmin
##menizi
organize
artan
öğle
i̇let
##si̇
i̇smail
darb
##iyo
##lenir
borsa
kıymet
##zat
mensup
kocaeli
süredir
##leyecek
meclisi
fabrik
##anıyorum
uzmanı
hemş
sorunlar
mesleki
vererek
sürpr
etiketler
kayseri
tutan
##oto
##araj
##melerini
karşın
yaşama
##yaj
misiniz
##ki̇
alanları
banyo
##eyecek
52
basketbol
çil
kısı
##elendir
hali
##ebilmek
kore
##ebiliriz
çizg
güne
hollanda
##lıktan
yapıldığı
alabil
##fe
hatırla
eya
gözet
##ansiyon
edilebilir
yaratıcı
kazanç
##denin
ümit
makine
tazmin
##çisi
dikkatli
yetersiz
çarşam
##gini
ira
ris
fabrika
umarım
gidecek
forum
firması
arkadaşım
düzeyde
zemin
##vat
vakıf
parlak
karay
birine
##rop
##atistik
##ebek
işgal
turnu
##emeyen
istihdam
muk
kiralık
##imle
bulut
makinesi
##ılmaktadır
##satı
bildirildi
kalıcı
roma
uk
##los
##acaktır
korumak
kıv
ailesi
##dunuz
gal
sahil
alınır
sayede
verici
##onun
makyaj
noktası
raki
tanesi
reform
aziz
bonus
yürü
##ısal
kullandığı
akademik
başlıklı
uyumlu
maruz
##melerin
##lanabilir
arşiv
çarşamba
kuy
aşı
##lerimize
hükm
rahmet
endüstr
##ilmesine
alabilir
heyet
günden
günah
buyur
laf
58
birleşik
esnasında
yöntemi
##itter
ayda
##iyel
oyunc
i̇p
yapıp
col
sivas
hayatın
ytl
gerektiğ
##ilmez
##dığın
kusur
##lıca
hükümeti
##ğının
hizmetler
seven
harekete
farkı
##ilya
##tah
derecede
##liye
##ima
düşüş
kalacak
merkezinde
iphone
dolarlık
tamir
londra
yata
topra
tir
uygulamaları
belge
gittik
56
zorlu
nö
##mo
jandarma
attı
som
##diy
##imini
bulgar
##mız
anlattı
play
sekiz
zorluk
barındır
##fik
hastalığı
senden
##cin
numarası
gayret
hu
mp
##mis
##tuğu
annesi
özgü
aşık
çekici
gerçekleşen
i̇t
perş
gözük
görmüş
çalışmalarını
fatura
##barı
##lent
konuyu
çatışma
##ash
##lemesi
##lası
beda
malzemeleri
##pat
##usuf
yolculu
aslan
başlamış
finansal
şirketin
tef
istemiyorum
uğr
##ây
i̇şleri
sanal
derken
##irim
apple
##tıcı
bayramı
##bbi
kutu
istediğini
ahş
##uzu
yılının
##ğe
emre
kısıt
kuran
rüzgar
erzurum
gerekse
bunlara
ağr
adresi
##sul
kemik
kolaylaştır
sınırlı
keyifli
bugünkü
yusuf
##ýþ
evinde
i̇d
market
olunca
pamuk
##diğimi
mantık
alması
##ona
##stan
turist
telek
mağdur
duruyor
hariç
muhalefet
##ane
tutul
64
konseyi
51
liste
tüketic
verimli
koz
kimin
##talyan
pis
##ektif
efsan
##ese
bağımlı
##ilip
olmaması
plastik
##ump
bekleniyor
ste
lak
psikolojik
##liam
cesaret
##elle
etiket
##mediğini
bizimle
##lacağını
verdim
##edi
çabuk
2019
57
yeterince
seviyorum
garant
uygulanan
##mamak
gemi
##asız
lise
i̇nşaat
olama
gelmesi
önemi
federasyonu
yapmayı
eminim
ulu
perşembe
191
##ülüyor
##val
orhan
inanç
kalıyor
gelince
vade
yılları
##uman
çizgi
tanr
sunulan
sürpriz
##balık
büyükel
çekim
istifa
##suzluk
yoğ
muhaseb
mülk
oğlum
traf
##elerek
##tel
##landığını
yapın
##ie
ettiler
twitter
kanat
harf
hakkındaki
##yiz
yaprak
inf
sesi
##ts
çalışmaya
i̇spanya
cema
yönel
##oo
garip
##ib
edilmektedir
http
altını
hükümetin
##lamayı
kendinizi
baban
oyunun
olmaktan
##tek
buradaki
ahşap
deli
gördü
gözden
çalışır
önder
bulan
##iyorsun
görevl
star
##ral
geriye
festivali
kaymakam
ust
##madım
yapması
##ilebil
öldü
anket
yolları
sakat
zan
nez
suretiyle
ücreti
sunul
aşkın
metrek
alışkan
##sy
çök
beklenen
bulabilirsiniz
fas
kararlı
akın
bakanlık
##isiz
bülent
mevcuttur
##mr
geride
olurdu
##gül
bedava
nükle
##malıyız
##çu
çıl
ortada
kalkınma
çağdaş
fe
gündüz
anında
250
##red
##leye
bulur
formu
projeler
evine
üstü
grafik
erişim
aa
mesle
sön
##dd
isterim
kapak
##tığım
başarısız
vadeli
siyasal
sergil
##jan
hepimiz
bisiklet
aklı
verilecek
bulunmak
eme
##unuzu
##tifak
muhtemelen
##tayız
günleri
alama
musunuz
##uc
my
cal
i̇letişim
miktarda
biliyoruz
##larınızın
faydalı
##ph
##osk
alev
##esto
hatt
kullanılması
evin
blok
emlak
lam
disiplin
porno
etmez
yapılıyor
giyim
ahlak
tıpkı
ceb
açıklaması
istis
##oft
hid
yumuşak
kalıp
192
çoğunluk
düzenlediği
zehir
ndeki
sizleri
ayet
itha
maliye
paha
olduğunda
ori
isteme
geldiğinde
montaj
raf
telekom
devamı
güler
harek
vel
hayırlı
görevlendir
##içi
hil
işlev
sanıyor
nereye
hazine
teki
galibiyet
caddesi
şahıs
oyunlar
i̇talyan
##mali
enteg
taraftan
öğrenmek
kamuoy
olaylar
bitki
yıla
gelişme
öp
denizli
konfor
arkasında
bulunması
nereden
haftada
masraf
yönde
##ow
hindistan
yüzlerce
##paz
temsilcisi
öğrencileri
koleksiyon
pilot
kabil
uydu
rekor
kodu
yurtdış
toplantısında
haş
##tikten
olmasa
dergisi
##diven
macer
##kun
##imp
müf
azer
kaydı
eskiden
sunum
tuva
yil
göstermek
kişiyi
çuk
arayan
pencer
lanet
içinden
üstlen
seçimi
göst
saati
tarihinden
çır
teker
full
iyileştir
##iti
sakarya
dola
aksine
donanım
##lâm
##leyin
atöl
tarifi
bahçeli
etmem
netic
mevsim
olduğumu
unutul
dayanıklı
hast
##amızda
karanlık
şanlı
çıkıp
##lerimi
forma
komşu
##liyorum
##fed
şehri
hastalıkları
arıyor
ci
doktora
bahsed
delik
ceph
bacak
eğlence
bıçak
havaalan
##diğinden
##lanmaktadır
sisteminin
bakar
potansiyel
rande
akış
##rist
##ciğer
##ülmüş
kaynakları
caz
##yim
tey
dürüst
bayanlar
nükleer
ederiz
iletiş
süreçte
##ğla
ömr
santr
63
duygusal
akses
bla
kendisinin
59
ömür
bölün
##mut
sizden
##ste
##tiğim
japon
başsa
kk
##slan
cor
icin
aptal
##ılarak
engelli
öf
canlandır
##eg
mana
kullanıyor
##bahar
yüce
topu
mol
##cın
ven
yemeği
kek
kazana
alanlarda
##und
##kil
amerikalı
##ington
anlatıyor
sürecinde
bahçe
ış
ürünlerin
dairesi
çekir
çekmek
prim
terc
katıldığı
kg
mümkündür
dedik
##ladım
programları
olmanın
trabzonspor
##beden
##ris
kalmak
peyn
miyim
saatlerinde
600
açtı
bulunduğunu
ülkemizin
kilometre
japonya
sürüyor
meyv
vizyon
diyorum
sektörü
##nin
çekiyor
i̇şlem
efend
etmeyi
işyer
len
bizden
oluşturan
fit
değişikliği
##medim
aydınlat
üyeler
yuvar
##elal
##usuz
##alar
baktığ
tabak
toplantıda
silin
anlar
üretilen
devir
i̇le
sözler
yağı
99
olağanüstü
çöp
##örü
geçiyor
rabb
biliyorsun
şimdiye
kullanabil
bileti
sorular
taşıyor
i̇mam
tekst
alıcı
sabır
imz
eyalet
katil
boru
dosy
suçlu
şeref
ülkelerin
uzan
gönüllü
düşündüğ
hiss
işletme
satışa
##rib
##azı
ulaşmak
gor
satılık
##eyerek
plak
dondur
##lamaları
paral
dünyadaki
şö
##mini
düzgün
gayrim
edilerek
##larınıza
##emem
sakın
gam
tüp
tıbbi
takımın
kartal
##lığından
köprü
bizde
olmaları
##tıktan
##idi
sinyal
bizlere
tavsiy
özelleştir
fırsatı
soruları
arasına
dönemin
i̇r
adıyla
##11
aksi
memnuniyet
i̇lg
ulaşı
tedar
hamil
##likleri
inceleme
tıkan
stres
sy
sınavı
çocuklara
versiyon
akar
##yak
##medik
süreli
sizinle
istikrar
seksi
döndü
dışına
##mu
##yaspor
tutum
##masi
gidece
gezi
patron
##ebiliyor
oradan
##muştu
ayakta
bebeğ
skor
yorgun
##ci̇
okula
atak
gerekirse
arasından
büyüy
kaybetti
kurmak
enstitüsü
listesi
stratejik
inti
çatı
tavuk
ves
karşılıklı
sanık
bok
kole
robot
95
enfeksiyon
örneği
##giz
payı
vası
hotel
##tip
##ith
söylemiş
##sis
digit
##lon
oyuncak
nar
açıkça
canım
##mus
gördüğü
karbon
##malarını
olgun
durumun
bakır
by
tüketim
org
hocam
konular
##tez
alana
olimp
cumhurbaşkanlığı
protesto
apart
vergisi
##caya
koyu
##ersen
66
##gn
kurtuluş
aracın
##ciz
havalimanı
olabilecek
başladım
rengi
kontrolü
char
miktarı
85
##80
olmuştu
hepsini
##tük
##bilirim
sandal
ras
##rip
##nav
yemin
##ee
##lerdeki
bulaş
başkanlık
ödey
bölgeye
şekli
edeceğiz
teşkilat
marmara
gram
##kim
##riyet
hakkını
adli
##bası
gelerek
kullanılabilir
ekipman
dekorasyon
olmuyor
##ai
##otik
stok
hele
tedarik
kuvvetleri
hur
inanıyor
mekaniz
##şen
bozul
##oper
##lanmak
sayısının
çiğ
gösteri
1999
##eğine
üzgün
tescil
doku
##led
hek
ettikleri
bakımı
yağış
asit
yaralı
sıradan
zeki
bilmek
seçenekleri
i̇lişk
saçma
seyret
bölgesel
projenin
kutlu
sn
paralel
##asa
yayımlanan
beslen
lüks
yerleri
##ýl
koyun
keyf
estetik
##usunun
abi
dağıtım
taze
masaj
67
firmalar
şair
##ildiğini
bekleyen
dokuz
bakanlar
aksesuar
oğl
edici
kaşı
sebeple
##lup
##gi̇
getirdiği
##tre
##ým
bulma
şara
görüyoruz
egzer
##isindeki
şartları
yakıt
trump
gelişen
##ebilirim
kriter
ısrar
konuyla
satışı
hel
açan
zamanla
icra
yapıyoruz
yürürlüğe
hareketi
döner
sahte
yolunu
redde
i̇nsanlar
ürünün
idari
sembol
##landırma
yapmanız
##tülü
olabilirsiniz
yazılmış
duyarlı
olduğunun
nato
çukur
egzersiz
laboratu
ikram
mc
##meliyiz
sizlerle
işini
##dv
şok
##maktır
pahalı
##ök
dostum
oranda
karab
##iliğini
çıkması
yılına
öğrencilere
kavga
kula
air
delil
sec
öykü
##etici
##i̇ş
##stagram
kaydeden
##ami
##haf
diyal
melek
kayıtlı
çıkma
hastane
ray
##hisar
yazıyor
ırk
katılımcı
dır
ergen
piyasaya
dolara
burun
tarafı
##emizde
dünyayı
aldık
lek
göstermektedir
##mamı
trilyon
##ates
##balaj
görevli
##varı
makale
baraj
aran
baştan
girer
##gari
##unç
pom
holding
denir
##mıştım
altyapı
iba
ölen
burs
ermeni
şubesi
vatandaşlar
kıyı
hani
katkıda
bi̇r
müzaker
parayı
ortadoğu
görevini
##çın
##aca
direktörü
araçları
lif
müzesi
yetişkin
ikna
kapsamlı
##ang
komik
görünce
olsaydı
çiko
şimdiden
izleyi
yoksul
gelmiştir
zincir
feth
dünyası
##enizi
mühendisliği
dörd
ambalaj
brez
bran
##leyip
çav
genişlet
herkesi
sağlanması
utan
elinden
nci
tebrik
##ât
oluşur
öğrenildi
duran
değişken
i̇sa
1000
ikisi
hor
ikin
eline
##manda
almıştır
i̇mparator
şeyden
imf
çıktığı
zamandır
riv
glo
veriler
##imet
geleceği
ayrıntılı
mutfa
itibarı
hattı
vefat
dom
muhtar
##larsa
sınırları
##ala
ehl
başladığı
eşlik
62
##espor
oluşum
görülür
sistemin
profil
kedi
saatleri
##sün
##ight
arkadaşları
##sever
##ecekler
##raç
iman
kader
##ydi
##duktan
bizzat
sunduğu
i̇slâm
sonuçta
dışındaki
şirketleri
kadını
bulabil
öğrenme
konuya
kongre
öv
boşan
alırken
##enkul
rahatlıkla
##malısınız
mevzuat
##halde
##soy
yapılmaktadır
danışmanlık
kaybı
yıkama
##ive
ülkeye
##tılı
manevi
deplas
kaybeden
##esin
gelmektedir
kazanmak
##utma
taahh
tanık
yazan
##akk
##bistan
gerçeği
keç
##wor
brezilya
doğur
plaj
teknolojisi
kendime
kurş
metro
kaça
devreye
çamaş
fed
çalışmalarına
72
açıldı
gazeteci
başbakanı
uyarınca
yapacağı
şifr
kaldığı
plana
denem
micros
82
##ılmaya
olayın
üncü
##yoruz
geldik
##çılık
altındaki
karşımıza
hâl
##manıza
##ecik
doğalgaz
hukuki
kullanıcılar
dü
kktc
afgan
tüketici
madal
zihin
leh
çim
anlamlı
kıyas
##ılmak
kendileri
restoran
##mekle
karşılığında
devre
##ersiniz
##yaz
sesli
parlamen
başkenti
##lana
herhalde
aylarında
##liğiyle
gösterdiği
##ende
arıza
##imizle
esen
##tra
değişen
pozit
##uyla
asgari
çanta
horm
##tüm
##mesin
ceh
kalitesi
akra
orijinal
wash
balkan
yaptığım
fikr
##lit
krem
mp3
onlardan
koruyucu
tekstil
haftalık
maçın
##madığını
anlata
gidiş
eşliğinde
kaba
yakında
##sının
vurguladı
göreve
korunması
çetin
##bert
yöntemleri
##melisiniz
karn
dediği
evrak
iv
##urk
taksit
varmış
yapılabil
##çek
etkileri
nesn
##eyn
tarafında
gayrimenkul
tarzı
manisa
bag
mater
amir
resimleri
kütüphan
kısmını
##tap
tablet
yerleşim
kullanabilirsiniz
başından
yansıt
denilen
##ich
akım
şartı
istasyon
bölgenin
##mec
işlemler
makina
herşey
gerçekleşti
61
##emiyor
##emiyorum
yükümlül
gecesi
##res
obj
nişan
düşündüm
vermesi
teknolojik
zamana
kurumlar
sonradan
alımı
kitle
köken
maddesinin
yalı
ortasında
dersi
sürük
çapında
uygulamaya
##eleriyle
dilerim
68
##tıklarını
##layabil
sitesinde
doğrusu
idare
120
lay
uyu
türkmen
etken
gününde
işık
zararlı
verin
sigort
gereksin
fıkr
sığ
yla
ked
alanına
liman
##efa
şeytan
göze
##layabilirsiniz
##ml
##umuzun
olmakla
organiz
dördüncü
bölümde
çalışı
yir
hikây
yardımı
inanılmaz
insana
yazdığı
dolandır
##elikle
referan
##daroğlu
ziraat
sünnet
kalabalık
dükkan
rady
##burg
doy
özer
medyum
tazminat
tamamlan
suyun
##dıkça
kızın
ilişkileri
hitap
istemez
kaynağ
geçirmek
testi
gran
bıraktı
##çilik
##larý
mühendislik
hikmet
yoluna
kadık
fikri
washington
##ny
muy
mısın
hayatına
oynanan
##balı
kurucu
hdp
##linik
##30
arda
staj
samsung
##urfa
yüzü
cemaat
bilgilere
##umuzu
##io
kardeşim
minik
daima
ndaki
kızlar
dizisi
##dağı
ülkelerde
##aba
uzaktan
##arlar
konuşmak
konulu
sayg
hazret
kırk
hamur
69
##lıyoruz
kopya
desteğ
yazarı
şampiyonası
geldim
muhar
gergin
biber
gücünü
##ete
vas
sizde
mağaz
wal
sunmaktadır
haksız
keşke
##birliği
aklım
aldığını
hazırlan
koku
otop
keşfet
şarj
##gul
##likler
sunucu
yavuz
kurtu
kimseye
protein
kısaca
azerbay
arnav
hacı
gre
ilçesi
best
mide
bardak
##pg
yüklen
##vil
yerlere
asan
sığın
bayra
##we
onlarla
ifadelerini
muz
filmleri
dinamik
isteyenler
evlat
##rul
bası
##tığında
sekreter
bedeli
merkezine
küf
##vin
çıkardı
konuları
dedek
dudak
tamamı
##aydı
ermen
##ood
microsoft
ms
chat
vurgulayan
konaklama
unutmayın
fı
sözleşmesi
ukray
##aç
##ice
sunmak
cey
arnavut
atmos
sep
topluluk
tank
dert
valisi
bilişim
arı
suudi
##ýnda
##amıyorum
azerbaycan
halkının
çeyrek
tarihine
yang
organik
kadıköy
##çısı
alg
##ýný
yıldan
i̇nan
izlemek
cadde
dk
ağırlık
##lamanın
beton
sürdü
uygulamalar
şof
##esince
başkent
youtu
##esir
çekin
yetki
vicdan
olmazsa
bağlam
bankacılık
##rad
ret
pozitif
meb
girmek
buton
çalıştığı
sistemine
istemiyor
anlamak
edir
##lemiş
##layı
olmasının
olayları
tohum
herş
avustur
verilmiş
##orit
geor
teşkil
ulaştı
amatör
76
medeniyet
ilah
##âm
özgün
kullanılarak
düzenlenecek
##ılacak
mecbur
etrafında
hürriyet
araştırmalar
karşılığı
talimat
teklifi
gerekçesiyle
erdem
harcama
77
##dular
omuz
müsabak
##laç
oynayan
kitabın
max
virüs
i̇lgili
kadir
##yeni
amaçla
##inizden
mum
nakliye
iletişime
yönetici
81
oğuz
cümle
semt
##emizin
kişilere
kaşığı
katk
aktivit
projeleri
kep
saatte
çel
değerleri
ajansı
adil
boyun
tuvalet
şansı
efendi
getiriyor
caf
eli
materyal
planlama
irti
instagram
yapılandır
jack
lastik
##bas
##luğunu
kosova
yazıcı
i̇ndir
demokrat
tavan
##ılığı
rezervasyon
kablo
niteliğ
istatistik
yürütülen
##name
nihayet
toptan
gelmez
getirir
patlama
cezaev
ordusu
terim
istenen
perde
bulgaristan
##kes
hesabı
emr
gözler
rep
sıcaklık
##türü
yarısı
eng
##portaj
tuta
faaliyetleri
##iğe
miras
deneme
tesisat
##nn
karşısına
##indan
kardeşi
##dışı
savcı
çalıştı
##duğunda
##cal
tutmak
çıkmak
referans
ekr
sad
olanı
kitapları
##cell
bakter
alakalı
##use
yavru
##ğeri
röportaj
##lamıyor
ayrım
##dere
kov
korkut
we
tüf
esnek
##ss
##unuza
fın
i̇lçesi
cehenn
bilimleri
krizi
buğ
alem
imalat
böy
casino
randevu
i̇çişleri
çavuş
##abilmek
borc
vize
olimpiyat
yaşamını
##fez
harita
malzemeler
senaryo
ailenin
görebil
ibadet
##şak
birimi
görünüş
sis
tuhaf
##luğa
dor
geçmişte
kemer
dönemlerde
merdiven
yaralandı
##raz
##ümde
mahkum
##şek
##irt
hayatında
yun
general
cana
unu
buldum
eklem
tavır
köylü
devamlı
heykel
kra
yargılan
ihtiyacım
albay
hikaye
ismini
trak
ederler
korkunç
##lüğünü
yetkilileri
işten
konusundaki
başlık
##masız
yukarıdaki
hastaneye
bırakın
göv
topla
görünen
flor
stil
araçlar
##önü
loj
imar
kanada
keskin
müth
800
##işe
denen
disk
kılav
kaptan
noktasında
ikili
##sp
tebliğ
çıkarmak
talebi
dinlen
zul
muğla
sinan
vatandaşların
muhabir
##li̇k
##dığının
up
global
ihlal
adamları
ekst
tecav
##yeri
yazma
kerim
direkt
odaları
fah
milyonlarca
görüle
müthiş
girecek
düzel
##ned
sendika
kaplama
##ben
politikası
muam
başsav
kültürü
anlatı
seçilen
kurulum
fre
izni
kritik
##api
verilmiştir
sistemini
şanlıurfa
şirketler
uf
inanıyorum
tüy
bolu
özellikler
bitti
ölçüm
kılıçdaroğlu
sırbistan
##larımızda
##tara
##ure
tc
##ilirken
teknolojileri
açıklandı
elaz
sizlerin
yapılmıştır
çikolata
hic
olacağız
##âlâ
halil
fela
değişiklikler
kısmında
tutuklu
tün
serisi
limit
peynir
geçmek
##aa
##gk
##melerine
lat
uydur
##unuzun
santral
##gut
##lanmaya
##luğun
bastır
kapital
ülkeleri
##yalı
oluşturmak
maksim
koşulları
dışarıda
##ğinde
sınıfı
##ünce
çalışıyoruz
lerin
##emli
böyl
sergi
istey
gib
tecavüz
çılgın
işletim
yapay
önemlisi
##ung
eşsiz
etmiyor
di̇
sahipleri
felaket
you
kaybed
parkı
iklim
okudu
##evit
göçmen
reç
sözlerine
şahit
cerrahi
73
balıkesir
74
düzenlendi
yetkililer
karın
ithalat
vuruş
milletin
platformu
üzeri
uzaklaştır
yapılabilir
##dığımı
personeli
koya
##iminde
tamamladı
söyledim
denize
sic
verdik
yürüm
şüpheli
kazı
selim
bakıyor
milletler
riski
##egen
aşamasında
##abiliyor
gülüm
başa
ayşe
çalışıyorum
oturum
izleyen
müziği
yapa
salih
led
öztürk
giderken
##ja
karışık
yıllarında
girip
tarihte
alınmış
satır
elini
eman
i̇sviç
vekil
##gim
##ilerinde
youtube
##lusu
##pp
kuruluşları
yeryüz
afyon
çözümü
##kas
kullanılmaktadır
alp
olurken
ihraç
i̇sveç
zem
buluştur
##ilmelidir
evli
başlamıştır
##iret
taahhüt
uyandır
olabileceğini
sef
##fan
##çilerin
##ã¼
aleyh
oyuncusu
farklılık
aralı
##xy
ilanı
pant
##larımızla
mesajı
##tiğiniz
sitemizde
gebelik
hizmete
##layabilir
##ımdan
karmaşık
sömür
veli
##oni
örgü
galiba
domat
hatay
sara
sürüm
##izmin
sürdürülebilir
kurşun
sertifik
kitaplar
##amış
öğrenim
verdiğini
asansör
çıkarak
sektörünün
sag
şarap
##lerinize
kurulmuş
maddeler
ötürü
büro
had
toplamda
türkç
##tro
sekreteri
hakaret
görülüyor
birinde
prog
gala
gev
evrensel
##danın
öyley
##onsor
##übe
78
attığı
referandum
##leniyor
istiyorsun
belirgin
bağlan
##ena
şap
abdül
##utin
duyduğu
ediyorlar
bilimler
oyuncular
edirne
##lenin
abon
ilerle
almayı
olmasın
ilgilendir
derv
mektu
anlatır
eren
aynen
komutanı
cevabı
limon
atöly
cd
##ise
1998
##mit
oynadığı
muhal
tabir
eks
arabistan
oyuna
kategorisinde
yatırımcı
hırsız
somut
şebek
yazdı
müsteş
sponsor
yazın
##çılar
fuarı
federasyon
duyuru
soya
görülmektedir
bekliyoruz
getirilen
emeklilik
nöbet
uzaklaş
bölgedeki
beyler
çamaşır
gezegen
şeyh
işleme
şüphesiz
frag
##çası
özlem
pasta
bankalar
verebilir
##lendirme
itibarıyla
şehirde
onarım
anlayışı
gitmiş
ukrayna
alanlarında
vitamin
elbise
##ac
körfez
edecektir
kurumları
desen
real
##has
girmiş
ilgisi
digiturk
boşluk
ecevit
isa
şiddetli
veda
sunar
##barat
wh
beklem
intik
gun
merkezleri
sisteme
##tiğinde
performansı
böylelikle
filmde
masum
tatmin
aldığım
yayla
1990
istemiş
##çileri
kadına
bush
samimi
çevresinde
bozukluk
yapıyorum
yapacağız
mekân
##mece
##16
çoğunlukla
türkler
dub
oyunda
muhasebe
nadir
yürek
i̇nce
arslan
fonu
cezalandır
atış
sahipliği
dog
mahall
yağlı
noktaya
diğeri
topar
##elli
pc
bekleme
##cilerin
seo
maksimum
yoldan
bizleri
ric
piyan
yararlı
eseri
belç
jam
##ty
##ola
hızlandır
reddet
komün
kuruluşu
##bine
ilçesine
temizliği
##eyebilirsiniz
##larımızdan
avustral
akla
tırman
##tikleri
otomotiv
seminer
##uyordu
##tiy
işken
itiraf
oh
davası
##ınıyor
##yurt
fırın
rey
hastanın
neş
kapısı
##itan
##wer
maked
##ester
inşallah
endeksi
elem
beklet
##ug
rot
hedefi
gereğ
satıcı
ağırlıklı
##ebilen
ortamı
olanların
i̇stik
arayış
elazığ
zeytinya
resm
uefa
isyan
peşinde
alar
evvel
fig
inter
sebze
klinik
##liğinden
gönderilen
anlatım
eti
öğrencisi
doları
yle
trav
##düs
##ýk
##i̇d
hang
ittifak
trend
patates
bürok
meydanı
lezzetli
sov
kesi
gösterilen
erkeklerin
okumak
verileri
okulda
yardımıyla
mete
değişimi
resmen
logo
sektörün
yarışması
sex
meşhur
ertesi
tarafta
başrol
tokat
kocaman
görevlisi
yükselen
isimler
##wa
kaynaklanan
gelecekte
##ladık
gelmek
ruhsat
babasının
depolama
okuyan
##ker
alex
antrenman
##miyoruz
ayrılan
karaman
belgeler
##press
hazırlanmış
cüz
##uyorlar
millî
190
laboratuvar
rejim
gerçekleştirildi
##ld
aldığımız
programına
ısıt
patent
84
zer
havay
atıyor
yarattığı
hırvat
müj
derviş
açmak
ihtiyacımız
kaynaklar
i̇şletme
sayfası
ısın
##kusuz
intihar
faydalan
artı
##gur
geçerek
##lanırken
sıkış
yaptığınız
yapmaktadır
geliştirmek
manzara
şem
afganistan
##tüsü
sağlamaktadır
nolu
kızım
sayılır
başara
yapıldığını
gibidir
köt
dersin
firmaların
böcek
öldürül
oluşturulan
##ısındaki
nitekim
##esyon
##ebileceği
uygulanması
oksi
hormon
mahmut
büyüsü
##akar
700
neticesinde
hayatının
dergi
kullanmaya
elektrikli
izleme
yunus
dağılım
##iledi
verilmektedir
muayene
kampany
##lini
avusturya
bilinc
ingil
##iyesi
##ish
vekili
oluşturduğu
vat
seviyede
adnan
##iyeli
toplama
i̇çer
maddenin
trt
##vanı
kendinize
pasap
##omet
yükle
programın
yahudi
dönen
çalışmaların
belirlendi
anlamında
çalışırken
##umuza
zorla
i̇spanyol
ibaret
cinsiyet
gittim
atmosfer
yolun
başlığı
tüt
79
sözlü
laik
mevki
##eceksin
##emize
basınç
cihazı
rock
seçeneği
küt
##ney
##hael
##iver
bırakıp
girdiği
nakit
verip
bulacak
71
önlemek
hy
içeriği
tehlike
poli
##iğin
odaklı
##pınar
edenler
camii
grubun
töreni
planda
zamanlı
##ilecektir
boyutu
##berg
sözcüsü
sorunsuz
iktid
sektörde
çığ
yükseldi
koal
98
mült
sergilen
isimleri
za
suya
ülkeyi
çadır
dediler
coğrafya
kuralları
üskü
mükelle
##tığınız
hop
##ob
sınırsız
##mede
##illi
war
olmasından
##dön
tarihten
lt
##lamalar
vazgeçilmez
##sından
konse
##yolu
alay
##brek
##60
87
88
##ica
##cik
parçaları
rit
yükleme
hayli
etkileş
sorunların
geçirdi
##yaman
engin
hakikat
down
layık
burcu
gelebilir
##laşması
##göl
şuan
##ğim
pik
koalisyon
##kul
etmey
##vers
zorundadır
##gazi
müdürlük
süz
kars
paylaşmak
cidd
üyelerinin
ört
bilgilerin
oturma
ram
kaydedildi
kendimizi
başak
toplanan
sade
cis
##uncu
varlığı
##ıplak
adaylar
oruç
döndür
si̇
1980
katılmak
baþ
97
epey
sindir
aklıma
öğretmenler
##uki
##azi
aldıkları
duş
kurdu
böbrek
pişman
vermeden
fındık
davr
içerir
show
##dinde
çant
gri
fakir
sözcük
frank
cap
pal
anım
lazer
iyilik
zah
astr
söylediği
gelişimi
##ux
ihmal
irade
katal
getirildi
tarihe
birleşmiş
öğrencinin
esir
güreş
yasası
yücel
şirketlerin
sandık
sertifika
misyon
semp
oluşturul
dönemine
##peryal
##ilmek
rüyada
rica
çir
gereksiz
tahsil
##vası
##cy
arazi
##ört
diliyorum
askerlik
etkiler
##abı
hücre
piyasada
##tiniz
##ft
turkcell
siteniz
örnekleri
durak
şam
aza
motos
yerinden
deneyimli
albümü
hızı
söylem
değerler
okuya
duyurdu
##cağımız
yirmi
kolaylıkla
olas
baya
belgeleri
yaratan
sevdiğim
ekstra
sende
cengiz
tarihinin
##dola
sw
aldığınız
onlarca
1997
satan
##gelen
kurgu
evr
masal
##eydi
üreten
medyada
##mayacağını
olmam
kararını
birbirlerine
##layınız
koruy
firmanın
okuyucu
##olik
ettiğimiz
programında
ortamında
fav
meme
hissettir
##oli
mask
pantol
##ılmıştı
##laf
görmez
atılan
acel
belgesel
fiyatlar
gene
kombi
i̇sviçre
##tas
hamile
sağladı
domates
edildiğini
şimdilik
aler
ju
hastanede
miz
##eğinde
3d
katılma
paul
kurulması
kuvvetli
##stri
çözümler
tuğ
damla
##jik
çür
açtığı
modül
sürdürüyor
##che
vakti
işlen
meşru
yüklü
##opter
ajan
lef
hayvancılık
ekle
düşünen
ettiğiniz
##ûl
hoc
##mayacağı
turan
ispat
##bileceği
bölümünü
turu
i̇lan
cenaze
burda
cah
hareketli
##lova
sağlama
i̇laç
##meme
##alik
##emeyecek
##lans
temsilcileri
##larımın
filmler
solun
##eyici
partinin
konsol
mosk
kombin
aman
emperyal
ero
##bbet
##duklarını
bakmak
lor
içerisine
dayana
sürüc
fatur
rev
##40
oranları
şerif
değilse
kararlar
köşe
off
yazısı
yerin
tutun
ty
markası
michael
genetik
binası
berlin
##sm
##inizle
teminat
etmeniz
konf
haftanın
adamlar
dedektif
geçecek
uzmanlar
şanslı
kudüs
##kâr
##eğinin
sanı
titiz
beraberinde
yapıştır
format
üretici
kongresi
yılların
tesisleri
kdv
açılması
beyn
yaşandı
piyasası
jür
liraya
açar
##tv
kurtarma
dern
seviş
##ýz
kömür
##bilen
mağlup
kullanıcıların
kullanır
##rid
kaygı
geçiren
tetik
##ğine
şartlar
##̇n
analizi
müraca
görmeye
helik
yazdır
##dia
wat
kasaba
rehberi
budur
pres
sitede
83
genelkur
##tun
düşer
##my
tasarı
durumuna
##oter
diyanet
m2
çatış
##eceğimi
dünyasında
##ilde
kongr
yolculuğ
kandır
yapılarak
arkadaşlık
kenti
hırist
ayrıldı
boşa
kanalı
endüstriyel
dövüş
evleri
##tüğü
mezunu
standar
geleceğini
sözlerini
yapış
ekonomisi
yoz
ilişkisi
elma
doğuş
isteği
kaynaklı
çeşitleri
ailesinin
##lanıp
tarafa
##luğunda
yaşı
oturan
kimya
##daşı
gençlerin
dayanışma
##ülasyon
görüyorum
oluşturur
haric
ceviz
operasyonu
meselesi
##yn
nüfusu
pul
buzdola
mardin
##ting
sence
tarihlerinde
üzgünüm
birde
bebeğin
gi̇
sayısını
##cıları
##zir
tezgah
dâh
entegre
dersleri
gözü
##banın
ağab
arma
ilerleyen
##operatif
neg
##ife
konunun
david
ht
operatör
avustralya
##adi
gözya
yalova
##bür
cemal
super
arke
kade
komitesi
86
##tına
mantar
##ilmeye
kalması
muhabbet
öncelikli
##sar
muhafaza
kaşık
ebev
seçmen
##tınız
süresince
sırf
##relik
uygulanır
güneydoğu
sih
hatip
oğul
trib
hâkim
92
nitelikli
genelkurmay
##bit
unutma
##ði
kızar
taşınmaz
##ileriyle
öyleyse
iyisi
radik
görünür
sahada
moskova
büyüt
96
eserleri
dikkati
günümüze
##ayn
balkon
insanlık
1995
istenilen
kazak
hafız
erdi
islam
##ju
ilham
##ço
##azz
tecrübeli
yıllarca
üzün
##ses
##ğit
rahatsızlık
açıl
##âl
olmasıdır
tadını
##attin
##tüğ
##gon
düşünül
temizleme
öfk
##dor
anlaşması
sorumluluğ
##gb
hepimizin
kalmadı
xx
toplantıya
şiirleri
birileri
tanıma
durumlar
olacağım
mükellef
fotoğrafları
##mik
bilgilerini
yöneticisi
kurma
güncelleme
çözün
seçimleri
sorgulama
89
sırp
savaşın
##lanacaktır
imkansız
##df
yaptıklarını
başlıca
saptan
çoktan
bilmem
hazırladığı
açıklamalarda
dönüm
##deler
dünyasının
ebu
heyeti
kelimeler
şoför
##mazlık
i̇mar
aşama
gas
maddesinde
dostu
işletmeler
etkinlikleri
sıklıkla
büyüklüğ
veriyorum
dönük
yapmam
##ulacak
katlı
rüş
ikamet
mav
zamanın
##rü
ziyade
radikal
##tiha
what
##ex
birlikt
##bc
paketi
sadık
bakıldığında
lık
parsel
yorumlar
##elif
##ladığını
ulaşan
##ald
bekliyorum
##ülüğ
##allı
zeyn
tarayı
çu
sezonu
##top
meşgul
arsa
müt
gerçekleştirilecek
##ect
gereklidir
gökyüz
buhar
hemde
##usun
##ys
görüldü
etnik
dönüp
deneyimi
degil
ünit
görebilirsiniz
boşal
ihtiyacınız
angel
kablos
##iliğin
kps
derhal
##mana
dahilinde
etmekte
tarihsel
iştir
macar
edemez
demirel
##eli̇
işit
etmişti
çalışacak
tahta
cari
##eleme
profesör
olgu
fena
başarılar
##eyebilir
##vanın
ili
hatun
##tive
mesele
ettiğim
güçleri
seviyor
partner
yaşamı
helikopter
tet
olu
##meliyim
##ebilmesi
menü
katliam
oynamak
koydu
konularında
duydum
yükseköğretim
bulgu
şükür
180
motosiklet
yöneticileri
küm
##oid
serdar
bam
reha
geleni
##cunun
##i̇h
konuşmada
herif
döş
taşıt
##iyetini
oz
kampanyası
##hid
##ason
##taç
##izmi
##17
rize
sözcü
##atın
emanet
arttı
motoru
izlem
##stık
okyan
gördüğüm
i̇hracat
##larınızda
ecza
sigortalı
black
##ularak
çıplak
irtibat
artışı
ağrısı
şan
rız
pasaport
sevdik
##iştir
etkinliği
görevleri
cel
hukuku
##ildiğinde
i̇daresi
gerektiren
ekledi
düzenle
eğitime
mimari
##biler
##likten
gelişmeleri
kişiden
başarıyla
takı
füz
olmanız
george
villa
yaşamış
kapsamda
ağı
##emizi
getirerek
maliyeti
belçika
olanları
yazmak
vücud
çirkin
##feri
gökhan
tüken
ardı
nü
luk
sürdüren
i̇nsanların
sorumlusu
türkü
rolü
aslı
musa
ihtimali
sigortası
koordinatör
##emedi
sevdiği
##umda
hain
kooperatif
batman
atom
##cay
imam
atmak
##düğünde
dostluk
uzanan
##âyet
yüzüne
94
viz
veriyoruz
davut
baykal
bük
ingiliz
ithal
kentsel
merkezli
üzül
kâr
asa
basa
##ilmesinin
katılacak
köyün
vermez
etmeden
macera
ster
içki
devletleri
##istler
aşamada
cesur
ayın
salonunda
1996
şehirler
gördüğünüz
##ano
cüml
gürül
i̇hale
dolap
sağladığı
ambu
##ganda
##likte
yep
##vey
tespiti
enerjisi
ettiklerini
saatlik
haftası
haklarını
fırat
##hu
çırp
düzeyinde
olabileceği
opsiyon
ini
##åÿ
kendisinden
maddeleri
komutanlığı
muhalif
sayfada
önemini
oturup
belirlenmesi
öyk
içme
##umuzda
aradan
tahsis
yaptırım
##19
gönl
yüzyılda
verdiğimiz
yıldön
93
açığa
müracaat
artıyor
##larin
##hai
frek
yıldızı
reak
##vert
unvan
kentinde
gb
##göz
##kent
dışarıdan
hij
etkileyen
geçirdiği
fal
geçtiği
dâhil
sürecek
tırnak
değiliz
muhtemel
ihtiyaçlarını
varlığını
tıklayın
dediğimiz
kis
oynan
##diğimde
çalışmalarının
başını
içecek
gerçekleştirdi
##vo
polonya
kova
açıklamaya
kurucusu
üste
görüldüğü
gelmiyor
işveren
sevilen
sunuyoruz
yuvarlak
buğday
bilme
atar
çevrim
başardı
##izde
kurduğu
##esun
havada
bölgelerde
pembe
cr
kentin
inde
başladık
##metik
çekilen
vücudun
gro
yapılmasına
düşünceler
öncü
başkanımız
yargıtay
konuşuyor
artması
güzer
bot
gittiği
##amda
##faf
##unt
ss
düşünmek
##tic
bilgilendirme
https
tüzel
rivayet
ilanları
hikayesi
özdemir
boyutlu
blu
yazılan
fren
ölümü
los
ti
##cere
düzeni
yüzme
puanı
turgut
edeceğini
olursunuz
bildirim
tol
durumunu
times
burak
adında
##menize
pre
pır
##emektedir
yorumları
##tiş
çalışanları
##lanmasına
editör
yayınlandı
oynat
bitkisel
##lenerek
hükümleri
stü
##ðý
kupa
hazırlanıyor
anlatmak
istedikleri
900
##diğinizi
##bre
verdikleri
kolları
server
karada
sevinç
aktör
yaşamaya
yurtdışı
hayati
kırsal
şampiyonlar
hangisi
rıza
yükseliş
##osunu
nic
merh
##itler
çalışanların
alkış
i̇zle
kalkış
##general
##ational
mimarlık
zeka
##ebileceğini
izliyor
arapça
nil
##sus
endüstri
pantolon
kurtarı
sıç
vitamini
olayların
##inyum
gerilim
yükümlülük
rüy
kime
değiştirmek
endişe
teşkilatı
##lanmasını
geleceğe
elden
##ole
geçtik
##lie
kadınlara
gönderdi
liber
okum
sonbahar
öğretmenleri
sini
problemi
##tının
fazlasını
getirilmesi
ikiye
ebeveyn
seyr
seviyesi
karşıy
au
##lilerin
bron
geliştirilen
sezer
kılın
adıyaman
yüzünü
##larıdır
##olojisi
##load
kanseri
##mazlar
anıt
bağlantısı
##ling
tekir
amas
raporda
adımlar
##yat
depresyon
yır
##eliğine
çoğunluğu
dönüyor
karara
mineral
1994
birincisi
##ımızdan
##cesi
##cinin
hayatım
içten
##âz
şüphel
##için
senet
miyiz
parası
kazanı
##mayacaktır
kullanılacak
romanya
##çü
programa
refah
jen
kanaat
kurab
diğerleri
şirin
sark
işine
##renin
hıristiyan
izmir
erol
gülen
ihtiyaçları
akraba
parma
tema
parlamento
bölgeler
kpss
portf
##ach
##kender
konul
diyelim
lojistik
detayları
yollar
grev
bi̇
kitapta
ayının
levent
ligde
karşılaşma
##laşmış
giresun
##eld
ların
##emedim
siteler
##ble
##ily
fazlasıyla
##itik
mücadelesi
gündür
sizce
sök
mutlak
kusursuz
başlamak
kaldım
bilinçli
etkisini
##iriz
tanınan
bilgiyi
##abileceği
kararın
kaçınılmaz
sürecinin
haberine
makedonya
müd
yolsuzluk
##dk
etek
başvurusu
##dyum
##mayız
yapmıştır
haliyle
##by
zır
bardağı
söylüyorum
olursak
donat
şidde
çekerek
sarf
planlanan
gidin
anlamıyla
##ayın
##umun
##oks
üzüm
galaxy
göstergesi
##ayacak
ortaklık
edilemez
boyn
avcı
çıkarma
yönlü
kadınları
katılımıyla
##irli
##uklu
otopark
##sanın
i̇çeri
oluşuyor
nitelendir
şarkıcı
zik
değiştirme
##suna
almadan
direniş
iftar
##odu
##miştim
saldırgan
ley
bant
çorba
##cağından
yanıl
varken
altından
söyleyerek
##ılırken
doz
içe
azalı
razı
##abiliriz
##wood
kadarıyla
##ekte
tm
deg
alındığı
kalkan
sempoz
##ongul
yönetiminin
edelim
##15
##cileri
asf
vermey
şeffaf
##pet
buda
kavg
sarayı
alacağı
özelliklerini
giriyor
geliştirilmesi
sözde
azın
pür
geçmesi
kına
i̇lhan
programda
adama
##onguldak
##tezi
insanlarla
##dp
bekley
ülkeden
yaşadığımız
edebilecek
##lub
aut
istediklerini
perak
faruk
##faiye
i̇lişkin
çeliş
yapılacaktır
##ğinin
borcu
sınava
otob
##graf
gerçekleştirdiği
kredisi
sosy
gölü
##pu
##nda
##ekiz
fotoğrafı
hayvanlar
girişimi
alüm
##ılmasının
yalçın
ulaştırma
##ls
resul
dizayn
bağdat
toplumu
##nes
gözleri
##ladığımız
titr
seans
bırakmak
hastaların
mul
sıkıştır
kanununun
kurtarmak
etmesini
klav
kaleme
klip
diyorlar
haberdar
##ümüzü
##ıyorlar
##akal
##18
belirtiliyor
edeceğim
kullanıldığı
fırtına
belirsiz
bül
ışın
programlar
aldır
##oğu
##lanmaz
i̇ncel
savaşa
çıkarılan
madalya
atama
zonguldak
midir
i̇pek
araçların
hastalığın
city
tecrübe
taşımacılık
yepyeni
##dýr
değilsin
##ilmişti
afet
federal
##uel
yapacağım
yetmez
solu
burn
başlandı
menfa
yayı
tahliye
##aklı
kare
ülkesi
host
kuruş
##iyenin
ötesinde
çekme
kütah
##veni
##memektedir
çocuğa
duman
##dığınızda
poşet
sesini
yaşamın
romantik
tarla
yahu
##aydın
diyalog
##ünc
çen
kazanır
konuşmasında
satılan
yama
##aspor
spr
##gunu
kucak
termin
vasıt
berek
başlayarak
mam
kin
başbakanlık
uzaklıkta
dilim
##ünüzü
##mışlar
biliyorsunuz
sitenin
dede
##lecek
duyulan
işsiz
bilinmeyen
portekiz
edilecektir
binanın
serin
perakende
kullanılabil
oluşturuyor
getirecek
tsk
hüz
nice
bulmuş
##laştırma
baskın
aydınlatma
##çının
ertelen
frekans
volkan
sordu
negatif
bilmeyen
sürdürdü
kendinden
filan
dersler
kutlama
nikah
imparator
kopar
çalışmalara
##coin
##zen
usb
##diğinizde
fiil
soğan
sing
çeviri
sırasıyla
etmeleri
yapılmasını
yapalım
##imum
oktay
yoğurt
out
anneler
etkisiyle
üni̇
##ayıp
yazıyı
girişi
hizmetlerini
ediyordu
dy
sadak
akşamı
oranla
##ysanız
ihanet
kablosuz
bulunmayan
##ğunu
##rd
etsin
galip
ahmed
laci
##saspor
pakistan
##ıra
##arda
kuşak
##ilme
şampiyonluk
iii
hev
grupları
##yd
yapmadan
##32
şaka
kararları
kaleci
uygar
özkan
##ılmalıdır
bulunu
##bağ
james
dv
onar
birtak
kapsayan
liralık
adası
##kür
suçu
öğretmeni
##anızı
dolandırıcı
kumanda
##ebilmektedir
kenara
i̇lişkiler
sayfasında
çalıştım
##eğiyle
##hk
kokusu
sınırı
hissediyorum
duya
ödülleri
hiper
mesut
sebz
atma
başlatılan
ileride
##diğinin
##fil
yüzyılın
tünel
bursaspor
pin
##ınızdan
aşkı
memuru
koordinasyon
aydır
ifadesi
işi̇d
##ces
üyeliği
başkanları
kayak
cüzdan
moral
##abilen
##maraş
keyfini
verirken
gruplar
takvim
##ann
##kap
##ew
fiş
cir
maça
idam
iktis
taksi
i̇çinde
zihn
aktarı
milletvekilleri
benzin
deh
olduğumuzu
nazar
##diğince
ölür
deme
metrekare
emeği
bulabilir
artarak
pist
düşünmüyor
arayıp
sevimli
asp
etap
düşüyor
bosna
boşalt
düşmüş
noktaları
pot
tarihin
anma
değerlendirilmesi
yolla
girerek
##mun
filtr
anılan
fos
##osun
topluma
##üğü
##dumuz
keşfed
miy
müze
##tisiz
sezonunda
##irse
##tp
olabiliyor
##bolu
madrid
##gücü
tesa
biş
uyuş
alanya
göt
beklemek
birtakım
strateji
##lerimizde
seviyesine
alüminyum
##amızı
tutarı
varsay
artırmak
yapıya
buluyor
yaşadı
kendim
cat
düşünüyoruz
jim
gereğince
akciğer
içerisindeki
##lanın
işada
kimliği
kavuştur
##ıyordu
ortağı
subay
sevda
bart
gecenin
##dişah
bira
direnç
çocukluk
1992
##bs
teknikleri
kaldırılması
sürüş
yapılı
adem
aracılığı
aileler
kısmen
kahramanmaraş
dilekç
ürünlerini
vermiştir
pınar
##ıklığı
devamını
yenilikçi
##dükten
haftasında
##dine
yaşına
tadı
sürecini
mısınız
terörle
##itasyon
##ski
ödev
etkileyici
başlattı
seslendir
oluşmaktadır
düşünün
yönünden
##sad
aki
hrist
sezonun
##lığımız
sorumluluğu
edilmelidir
##lerse
mantıklı
##memi
makal
##mayıp
##matı
oral
çub
bors
şur
send
slogan
aittir
felsefe
okulun
kalitesini
bağırsak
polisin
##sizin
ertuğ
vesile
şab
kadrosu
##ebir
veter
##buki
muharrem
figür
mıdır
sokakta
lah
divan
sıkça
fotoğraflar
çıkmaz
i̇nşallah
koşu
portföy
kalmaz
gürültü
padişah
küp
medy
işley
şampiyonu
sorusuna
salata
fidan
büyüyen
kökenli
saban
kurtara
ucu
çalışanlar
##ani
##kanın
kullanış
adresine
vakt
borçlu
mesafe
ekme
mekanik
yazılar
1993
##ladılar
bizans
açıp
mütte
alfa
haritası
açıklamalar
yılan
insani
kapıyı
##tiz
gerçekleştirmek
etkinlikler
tayin
tesadü
neye
gı
yaratmak
keşif
yazıda
kategori
arkadaşlarım
dayanan
tasarlanmış
zarf
rec
kılavuz
##das
açıklanan
yahut
##dikçe
tekirdağ
finansman
paranın
##eceğin
üzüntü
##tuğunu
arıyorum
kesintisiz
haram
siteye
yönündeki
##bor
dizinin
katr
##eciler
uygulanacak
sağlayacaktır
apartman
kaymakamı
alışkanlık
##iliğinden
bağlıdır
şov
renkler
umur
##lerimizden
##cia
bekir
topluluğu
tersine
rüzg
##leşen
açıklamasında
aksiyon
gelsin
avrupalı
fıkra
farkına
olacaksınız
karaca
sayılan
seçme
muayen
tesli
kütahya
##limi
##yü
ünal
zanlı
prensip
gölg
söylediler
kamuoyu
dökü
müsteşar
ayağa
##i̇tesi̇
başlamadan
bör
eğitimin
partiler
miydi
seçin
##hen
oya
değerini
üsküdar
taşına
sensör
ptt
çeker
atarak
çekirdek
çıkmaya
##amızın
gerekiyordu
##abilim
arjan
##usa
propa
olurlar
##dý
çıkaran
i̇slami
##ografi
kronik
sop
##gas
adlandırılan
adayların
kurtulmak
yemekleri
ilaçlar
hareketleri
herşeyi
kanlı
gerçekleşecek
bağlantılı
seviyesinde
ateşli
işlerini
sözünü
hassasiyet
inanc
fırça
mr
yapılacağı
##lerince
namazı
edinilen
yazmış
çalışmanın
kalıntı
yıp
şekeri
##sten
lap
##losu
asfalt
geçin
umu
karam
toprağa
saygın
##25
##i̇s
kolon
##araya
##cker
çı
mars
hamilelik
turnuva
mevdu
##binde
i̇skender
##abilirler
beraberlik
gerçi
gelmişti
selçuklu
toplumda
i̇ktis
bulduk
terap
##gren
anabilim
eleştiri
##ope
huzurlu
deplasmanda
davanın
edebiyatı
tarımsal
##tıkça
eyüp
seçkin
mülkiyet
tencer
benzet
şeklindeki
erzin
düzenleyen
göstererek
tansiyon
isminin
ilim
yaşta
noktasına
ustası
ibar
tamamla
kullanılıyor
askı
##liliğini
söndür
##masıdır
polisi
sisteminde
veriliyor
ps
yapacağınız
taksim
##ışın
dul
kıymetli
arjantin
##lanmıştı
yakalandı
om
müzakere
baktığımızda
solunum
otuz
sicil
##lash
polat
sorunlarını
sanmıyorum
##asın
karaciğer
yapabilecek
##iliğe
##pi
arif
avm
##baba
##way
noel
madem
belediyespor
##tıp
kazanma
çözünür
kraliç
mezh
kötülük
aldat
karşılamak
istediğimiz
yurtdışında
eksiksiz
parçalar
serp
taht
##ceği
tesisi
yayıncılık
paramet
deyip
niçin
çektir
şüphe
çıktığını
##liydi
isabet
bildiği
yönelt
küfür
türleri
ertuğrul
tanıyor
aksaray
haberleşme
world
başlı
çalın
##mektir
yılbaşı
şeylerin
##ayarak
##lüğüne
yüksekokulu
personelin
##üsünü
yoksun
ödün
oksijen
lirası
hapse
##üsünde
##luğunun
tamamını
##disi
hissede
etkisiz
seçimlerde
vermiyor
##mamızı
benziyor
ros
zeynep
büyüklük
sanatlar
##edin
bulup
gövde
kafkas
##tes
##gem
resimler
ze
olmadığına
bakarak
gönderildi
varan
##emiştir
tapu
##evler
stadı
seti
##maktadırlar
kısacası
##70
kullanıma
üni̇vers
##imizdeki
ressam
sayısal
olduğun
##olar
bunda
vatandaşı
pasif
yelpaz
##stem
nerde
##dig
ışığı
uşak
katar
istihbarat
vahşi
kavramı
arkasından
karayol
ayhan
jet
one
gerçekçi
uzmanlık
sonsuza
havaya
sözlük
vadede
parf
eksikliği
gözle
taşır
oyuncuları
antrenör
lacivert
yürürlük
işareti
girmesi
düzenlemeler
kurulmuştur
##24
jon
vaka
vurdu
teâlâ
defalarca
##ülerek
kuruldu
yurti
vaj
diyabet
##cher
dursun
lerde
badem
okumaya
kef
işlemlerini
kararının
geçip
malı
muhafaz
artar
hp
bırakma
buçuk
##parta
konsept
plakalı
verdiler
uğruna
lüb
sütü
tarifleri
html
##ges
orjinal
sendrom
doğumlu
çorum
oynuyor
william
katma
cevapları
##que
kimseyi
fl
sosyalist
koymak
hakkına
kısmına
neyi
##uf
ceket
kralı
zihinsel
##memiştir
##ont
tepe
odasında
i̇smet
idrar
yapmaz
miting
bazında
belirtmek
yazılımı
ziyaretçi
sub
koyup
mahkemeye
pazarı
köyde
##xt
geceleri
od
##laşan
gazeteciler
ihbar
sonuçlarını
spa
paylaşıyor
bankaların
eserler
haricinde
atlet
##ita
öngörülen
tabe
propaganda
düzce
fatma
yaşadıkları
##taydı
okudum
masaya
tutk
kazanım
söyledik
türklerin
giyin
##and
dna
##eet
plus
avro
##amıza
hijyen
teşhis
normalde
##mektedirler
müc
yatan
##malıyım
ataş
menfaat
kapasitesi
oldular
voley
çektiği
erkeğin
gizlilik
konten
verilerine
##abilmesi
vermeyi
fol
üniversiteler
ölmüş
çocuklarının
gözlerini
kastam
kitl
yök
peşin
yükümlü
erzincan
başladığını
devrimci
işsizlik
tahvil
özcan
ailesine
zamandan
##ızın
imaj
denizi
kata
word
duyan
celal
ios
belirlemek
denli
videosu
ücretli
kali
##14
süm
biriyle
sorusu
erkan
kıskan
##ted
indi
kurumların
krist
kost
ruhsal
yarışı
cild
okullar
##ecilik
paylaşı
açıkçası
i̇ht
karışım
seramik
##bilirler
metab
cihazlar
##ciye
değerlendirmeler
tabanlı
öneri
cehennem
doğdu
ülkelere
chan
kenan
bitcoin
kesme
kadınlarda
kapsa
milleti
halini
oradaki
nimet
kullanın
bileşen
sarım
belirle
bakımdan
ölçekli
hint
düzenledi
##work
tüketimi
bini
sikiş
hatalı
hastalar
yaptılar
##ediler
seçildi
1991
afrin
kişileri
cephe
sorularını
toto
sağlanan
aramızda
i̇şçi
ederse
##rum
##ırda
ilke
i̇stiklal
yönetmeliği
bırakır
##bileceğini
yapısal
sürecin
memnuniyeti
dinleme
1960
hidro
seçimler
##âb
tela
dilerseniz
ösy
şev
neyin
i̇nönü
boşanma
##veç
çıkmıştır
iddialı
##uydu
pekala
##sapp
##ümüze
kabar
listesinde
motorlu
izn
biçimi
nazım
gönderdiği
ortaokul
##ğiz
başkanlığında
öldürmek
olduktan
male
müsabaka
giys
i̇ster
diyebiliriz
çalıştığını
motiv
erit
sahibinin
##ören
##ümüzde
##cim
sanatı
harç
##ruklu
##oker
biten
işkence
bk
ziyareti
bildiğim
##luğuna
duyul
yatay
edeceği
##ikler
biyolojik
elit
sahneye
prose
şimşek
yut
##ümüzün
leri
ağacı
önündeki
##yetik
müslümanlar
promos
görüp
nihat
uncu
inç
ambulans
##yr
şehrinde
enter
##sika
yaşandığı
geçmişi
sahaya
##itab
yapamaz
bela
oranının
konsan
çocuklarda
##eceğinizi
amasya
kırmız
bereket
kaldırıldı
sabancı
servet
taciz
##sunun
ehliyet
denildi
##baz
fev
gözlük
alçak
kayd
önlemler
dünyaca
andan
##delik
havaalanı
uğrat
start
##leks
esin
dediğim
tamamlandı
yuva
deyiş
##şar
gelmeye
reng
köklü
##adet
görüşü
burç
öbür
dalg
##ああ
magaz
##pres
hafıza
hemşir
yönetmeni
kabin
##oc
##ebileceğiniz
promosyon
##idor
##tüel
ayni
sürer
etmenin
##ydım
yaşana
bağlamda
redded
faaliyetlerini
öğrendim
demişti
istediğin
heyecanlı
haydi
alarm
özgürlüğü
i̇şin
elif
muhakk
çöl
denge
robert
coğrafi
havaliman
big
ti̇
ruhu
balon
yarısında
yiğit
getirmiş
##mad
##caktır
ayna
birikim
tamamlayan
kısmının
##leşmiş
prosedür
bölgesine
##emeye
##çelik
zav
##ğım
odasına
hissi
havacılık
psikiyat
110
kirli
##şan
rota
endişelen
endeks
sms
programının
edilmesini
görüntülü
tütün
canavar
malzemesi
modeller
gitar
üni̇versi̇tesi̇
menkul
yazarın
##iyse
##diki
ekrana
otorit
mesai
durumdan
i̇ste
destekleyen
zamanki
karakteri
okulları
##eron
sahasında
şak
i̇bn
##gay
##ea
##eceğimizi
yürütül
hamam
çubuk
hesaplama
aşan
mermer
##arka
suda
##oviç
unutulmaz
kurallar
1970
animasyon
yapacağını
##gor
başlayıp
gerektiğine
yazıları
tatb
thy
iso
seh
sitesinden
##hard
kuruluşlar
kazanmış
tercüme
müşterilerine
aşağıya
bölümüne
seçimlerinde
çerçevede
evrim
hepsinin
whatsapp
##iel
takıma
yönetiminde
karabük
çoban
##eceğinden
##ıh
##alem
müfet
sürecine
emri
köyünde
malum
anladım
yorumu
engellemek
otelleri
bilinir
kürdistan
anlık
belde
torun
müşav
milliyetçi
dökül
kozmetik
ayına
ök
bulunacak
verildiği
diyoruz
sandaly
görüntüler
karayolu
kuşat
yurttaş
ilerlem
âyet
başlaması
baktım
çarpıcı
all
kurumun
yapıyorlar
##çer
tenis
yarg
beşinci
olmay
karşıtı
stu
etmeyen
bilinmektedir
i̇yi̇
telefonla
kurut
enj
niz
öteki
artvin
adayları
açılır
karat
çekip
sayısında
konusunu
geçerlidir
beyoğlu
rehabil
daim
dönmek
örtü
köprüsü
güçlük
ân
şe
konudaki
tanrım
elektro
farket
##ilmi
minimum
merhamet
düşünerek
çerçeve
meslektaş
konforlu
çekiş
yöntemler
muhakkak
makul
rent
kolu
hırvatistan
saman
şehre
##13
hazırlamak
babamın
özerk
##asal
##üksel
nehir
birbirini
kastamonu
verilerin
tehlikeye
çamur
vara
##derek
günkü
vermem
##ikal
çankaya
otelde
##ift
oluruz
i̇c
kot
gittiğ
zirvesi
formül
düşünmüş
taşıyı
anas
soylu
faş
##acağınız
molek
##melisin
yaptıktan
göreceksiniz
koridor
i̇stih
kalkın
efsane
yemekler
taşıya
okut
cihazları
soruyu
##çiliği
gerçekleştiren
kud
saatler
halle
suriyeli
tutuyor
döneme
helal
destekli
yakışıklı
yapının
muta
branş
komünist
babanın
bildiğiniz
##ekt
çınar
nuri
bölgesindeki
derler
yozgat
olmaksızın
batılı
ingilizce
suik
peter
ücretleri
çeyre
fiyata
takımları
i̇zmit
evler
meksika
##bileceğiniz
##biye
çayı
##mama
##dyo
konumu
devletler
portakal
elle
gösterg
görüntüleri
vaat
##ary
with
##ato
iltiha
anahtarı
yaşadık
130
isparta
başarısı
i̇dari
##ota
hara
burayı
çıkardığı
odada
kullanışlı
seçilmiş
sormak
bireylerin
anlatmaya
güzergah
##66
##ilmesinde
çaresiz
pencere
tıklayarak
tıklayınız
sgk
renkleri
oluşturma
mıydı
kazanacak
teşeb
master
korsan
##ion
meraklı
##27
kazandığı
özelliğini
böylesine
alınmıştır
başladılar
efendimiz
etmeyin
kabu
bulduğu
bilindiği
lakin
hatırlatan
til
##izme
##bilirsin
müddet
cik
varol
politikalar
basamak
yetenekli
nelerdir
sıfat
hırsızlık
##je
söyleme
şarkısı
okullarda
##barek
##çay
litre
niteliğinde
sayısız
##leştirme
adi
karı
şaf
şır
domuz
##bini
king
görülebilir
ülkemize
olaya
planları
soğutma
bine
yollarını
##epe
turistik
ilerleme
takdim
gerçekte
cha
açlık
istiyorsan
şarkıları
pompa
sayıları
teknolojinin
vis
##itim
takımının
istiyorlar
bireyler
yönden
görüşmek
güncellem
i̇htiya
mücadelede
hastalıklar
başkalarının
şekillendir
ml
##delen
##daa
programını
omur
araştırmaları
##ersek
##lidir
abone
##000
makineleri
aniden
##ilebilecek
danim
kesint
##leyebilir
hesaba
olanağı
söylenen
terey
sofra
olanlara
saklı
##ûm
ülkedeki
##ğından
kaldığını
dilediğiniz
açılacak
dışından
pes
jul
ilaçlama
voleybol
kararlaştır
ssk
inin
##eyt
annenin
demet
##bap
ürünlerinin
##fone
##ınıp
ron
i̇mparatorluğu
##inler
ita
medi
reel
ülkelerinde
189
keyfi
olmamız
tarama
kalbi
haya
maddesine
çalışmada
muhtaç
##omi
kasab
bi̇l
araştırmaya
ford
eğlenc
doğrul
gerektiğinde
dinin
olacağına
süreyle
##malısın
kâğı
home
istemek
##cağımı
gemisi
lübnan
belirtiyor
##ida
çıkarken
âlem
görüntüsü
##gr
taşımak
makinası
koyan
kapanış
##lamıyorum
##ymış
ilgisini
oynadı
##tle
yetkisi
##kb
görevlileri
veteriner
##masa
gelmedi
acele
vereceğim
mutluluğ
dele
yatırımlar
##fiye
##lenmiştir
yaralanan
##uşu
sahası
olduğunuzu
kağıdı
şaşkın
bayrağı
marmar
arayüz
ilişkili
arın
kazada
##düler
bulundukları
foto
transferi
yelken
çakır
dikkatini
elimden
hazırlama
nihai
kıdem
tekne
nefis
jean
gra
##ence
tedavisinde
almanca
i̇lköğretim
çıkmaktadır
##cım
bölümleri
objektif
öneriler
koltuğ
sağlanır
duymak
bağımsızlık
ufuk
konuşmaya
müslümanların
hazin
liberal
##stal
##emediği
aksu
bekler
ifadesini
##cus
alanın
hükümlerine
projede
katkısı
sha
ceo
bulunmuş
bölgelerinde
aydan
danışmanı
durur
koruya
duygusu
onayı
yarıda
giydir
yüzük
internette
ihtiyacın
çıkışı
##22
##port
brüksel
kuşkusuz
kızgın
akademisyen
##cir
müttefik
##eliğin
taraflı
arayarak
##enize
yeğ
giyen
belirlenir
##ä±n
atina
nehri
direksiyon
sonuca
##une
ligin
coşkun
##lig
amacımız
kazası
bırakan
çiling
yürüten
sulama
pirinç
##ette
##diğimizde
yedik
kadem
koşullar
alanındaki
kaçan
350
ferah
arkasına
mg
##ücük
başıma
yaşıyoruz
##ılabilir
köl
yerleştirme
yaşından
derinlik
tahmini
turları
organizasyonu
gününe
tasav
sistemde
ofisi
##cilere
vereceği
##ford
soruya
dayanarak
rehberlik
zırh
maltepe
destekle
ihtiyacını
sokağa
işyeri
hükümetinin
adının
şahs
##deres
oyuncuların
sürgün
##ct
derim
tt
karadağ
##low
##iyete
elimizden
yon
hedefle
##ento
##ym
##lamasına
zarif
durumları
##ula
bağışıklık
hesabına
eğitmen
odalar
akademisi
tadi
zeytinyağı
kupon
cevabını
ekleyin
yılını
##ýnýn
kumar
rakibi
açıyor
halkına
şişli
yıkan
gelmesini
mert
halbuki
##layınca
soyk
##ersem
kiz
muhat
##vak
gittikçe
müşterilerimize
problemleri
lere
gey
çalışmayı
çalışmalarında
olurum
##bilmesi
teslimat
##li̇ği̇
müdahal
pel
halkla
seviyeye
nedenleri
i̇rlanda
adresinden
##hoş
vasıtasıyla
kaplan
yrd
andre
##týr
##amin
bozukluğu
##eğim
fransızca
söyleyecek
bunca
komedi
şifa
eşim
stüdyo
140
note
ica
tutuklandı
i̇dare
görevine
veritab
suyunu
160
devlete
belirtir
##zaman
##çekmece
##34
yazının
mübarek
sudan
savunan
cre
merhabalar
##mamıza
karşıyaka
olayda
rok
hayret
##anam
ümmet
geçtiğini
kutusu
tekin
aklına
sorar
başaran
##äÿ
tarihini
mesajları
kalor
eğitimini
sinop
faydası
ösym
php
gözyaş
kıt
söylemişti
kullanılma
asil
lib
bulunmakta
##cağının
orda
muaf
tarafına
kıyamet
##guluyor
çıkabilir
örnekler
hayvanların
bingöl
saddam
düştüğ
saadet
çıkarıyor
başlamıştı
olacaktı
manken
aldıktan
kardeşler
aradığınız
güvence
guz
##diğimizi
fabrikası
##anıp
download
bakırköy
##lerimizle
jüri
taktik
nan
##ilmeli
farz
sesleri
yanımda
boyunda
ket
##oth
yaptırmak
talebinde
torba
bulunmamaktadır
samim
mesafede
çözümleri
elimizde
saba
operasyonda
kullanıcıları
hatıra
aramak
##astik
gördüğümüz
deyince
##elebi
kayıtları
kavur
ilişkilerin
politikaları
##linin
tıkla
hasret
eksi
milan
meteor
birebir
ödü
esmer
alıyoruz
bildiğimiz
##ikatür
konumda
istisna
imha
çiftçi
premi
işlerin
pusu
vesil
bellek
harc
uzakta
yetkin
eczan
##tığın
adımı
görevden
metrekar
talepleri
yazmaya
sıkıcı
hoşuma
yenileme
tik
çözül
uçağı
kilise
kullanımına
maya
##çinin
serkan
yapanlar
atın
şartlarda
maçını
çarşı
katrilyon
##last
gereksinim
dakikalık
adan
etmekten
sergisi
minnet
##delim
talih
noter
yaparım
gözüküyor
dosyası
ambar
bill
karikatür
##vara
##lamasını
değişti
dosyaları
galer
tiyatrosu
##ifor
##pon
kanalizasyon
gittiğini
akan
ygs
geldin
ayırt
##leyebilirsiniz
yaya
hane
sarışın
oluşturulması
başarıya
yöneticiler
bölümünden
koyduğu
düşündük
##efen
sıralama
##lunun
manev
polise
i̇y
parlament
intern
kelimesi
gerekecek
aranan
sağlayarak
günlerinde
##ou
beylik
lou
##ward
##mon
telefondan
elindeki
dengeli
gerektirir
atıl
lü
alındığında
anlaşılan
ulaşabil
bulmaya
giderleri
gözde
ağırlığı
kompoz
##masý
pv
112
flash
ümran
parasını
açılmış
geliri
videoyu
efes
sözleşmeli
sl
##oma
vadisi
konferansı
tekniği
bt
işçiler
ikil
##ülecek
dünyasına
suçundan
tered
buluşma
akr
menderes
çalışarak
valiliği
##lant
lehine
notu
kılan
arkadas
içindir
kalabil
zorundayız
bölümünün
panik
dereceye
kendisiyle
yıldızlı
açıklan
konuştuk
yapmıyor
##ics
sans
sili
böylesi
işlemlerinin
cafe
konumunda
bişey
zorlan
gitme
makar
acent
sonlandır
bahçesi
öğrencilerinin
detaylar
siber
kızılay
çarpış
dişi
mag
düşünme
asır
##istir
penaltı
arkadaşın
isı
sportif
satım
##în
uyk
##laki
kestir
yazımızda
yüze
ayrılık
##kay
gelişmesi
güneşin
tro
##pazarı
yanındaki
arıt
dinlemek
cli
ekipler
iskel
şehircilik
alevi
ömrü
muazz
##lass
usulü
görmüyor
##lish
##isy
##lının
212
kendiliğinden
berbat
izi
sistemler
bitiş
konsey
desteğini
niteliği
gebze
paylaştı
##cağın
annesinin
iyidir
anon
mühim
muş
işlemini
teorik
nedenlerle
özelleştirme
kızları
yapmakta
hapishan
sundu
kalça
dinlem
tehdi
uygulamanın
ilde
yoğunluk
sitesine
##35
geleceğin
katman
img
kesimi
##gue
tetk
sami
##cül
dikiş
##izma
geçirilen
bilerek
devred
ticareti
barındıran
korkusu
başkanlığına
çatal
yapmamız
videoları
şifre
pos
sıralarında
alıyorum
söyleyeyim
dun
satran
mary
##ness
##iyordum
koşullarda
##ispor
üçlü
i̇ma
skan
danışma
kabuk
hüzün
engelliler
tekel
tanımı
düzeyi
beklentiler
reaksiyon
emzir
olsam
ltd
##ettin
değerlendirmek
periyo
eksen
fiyatlarla
çağrısı
önerileri
yönü
sarhoş
ercan
kimdir
açıklayan
bağlama
buralarda
##emde
türki̇
zahmet
##amanın
ayağı
onda
oteli
ilgil
tereddü
##iyorsa
elimde
rem
nitelikte
seyirci
##koz
kullanacak
##ikli
harman
atmış
karlı
karısı
##ebilirler
doküman
altay
intikam
kaldırmak
çalışmalarda
pansiyon
istersen
mesajlar
kutup
##gara
sony
##lenmesine
yapımcı
öca
ışığında
bölü
##ella
görüşleri
aldılar
##cd
çelebi
1989
kullanılmış
hayatımda
belirtileri
şener
viy
yarattı
##lenmektedir
uzmanları
91
dra
parfüm
harekat
hatası
kaydıyla
tatlım
fiziki
verdiğim
erc
çözmek
geçirildi
sizlerde
davutoğlu
hakkari
harp
türden
vatandaşın
faydaları
şimdiki
türb
kararnam
açısı
başlıkları
##ction
demirtaş
liradan
bilirsin
##emeyiz
##osman
##ifer
değişir
##ýndan
##ayeti
cay
açacak
##king
işçilerin
acımasız
karşınıza
teset
partilerin
temp
##ısıra
hoşgör
ersoy
üyelerine
adliy
dublaj
ceset
yanından
boğaziçi
##vaz
##larınızla
öğrenebilirsiniz
ihal
ellerinde
i̇çi̇n
##gâh
çarş
##ıldım
dolaylı
öğleden
soyun
aileleri
uygundur
oscar
kalmaya
nazik
avuç
çeşme
minibüs
ts
##dra
##stat
##36
sıcaklığı
krip
##siyum
toy
karşıt
##box
iddiasıyla
yenik
adap
gelecektir
lava
çekildi
çapraz
ekonominin
yakınlarında
okan
##hut
sevgiler
##mene
gazze
derdi
sovyet
kun
kıbrıslı
##ganı
soğu
ebru
##vir
i̇leri
teşh
##sayı
lefko
üçünc
iyisini
basına
fragmanı
amp
yürütme
##eçh
kalesi
hizmetlerin
##lýk
##bos
yanısıra
entegr
fakül
vest
sınıfta
hayali
çevresel
çorap
tarafın
nap
lara
gelmeden
sevgilisi
##lendiği
ocağı
saatlerde
##edecek
bilmez
söyleyebiliriz
##alp
sonuçlarına
kitabında
kendilerinin
kazanıyor
tru
senary
kendiniz
##ileceği
zararı
i̇şler
yaklaşımı
özbek
##tayım
piz
çilingir
almaz
##lıkların
putin
yaptın
denetleme
yayını
##tığına
ız
önlemleri
uygulamalı
takibi
tutulması
tamiri
##ref
çıkarılması
1950
prenses
martin
zihniyet
gelirse
mektubu
back
müdürlüğüne
gününü
##lamıştır
##ünüze
dizel
kamuoyuna
kahveren
silik
nasip
hon
ülkelerden
iştirak
187
macaristan
birimleri
belirlenmiş
arta
obez
listesine
istemeyen
spek
##ılırsa
püs
mensu
##abileceğini
istif
antibiy
##dığımda
izler
anlaşılır
zordur
pendik
750
##latan
end
puanla
##ısın
cezaevi
kuruluşların
farkındalık
alıntı
denktaş
gibiydi
mecl
yerlerden
anap
kalka
yapama
tot
hastalarda
gruba
sevinirim
hoşlan
inş
##fon
kristal
gürc
##gos
ellerine
konulan
edilmesine
taşımaktadır
diyecek
ral
##iter
istismar
merkeze
havlu
yapısını
koyar
##isten
projeye
konsolos
sitesinin
bre
olmayacaktır
gömlek
kurulacak
avantajlı
partisinin
elli
##lenebilir
iþ
öcalan
##ston
olamaya
##ilemez
hab
konusuna
dere
feri
tuzla
##siyle
arındır
filminin
##değer
butonuna
motivasyon
kurulunun
yoğur
##oksi
##cular
karışımı
katılımı
akademi
hizmetini
##ekler
arasındadır
muciz
yeterlilik
##aat
istiyorsunuz
kuruluşlarının
artışla
şaşırtıcı
##lamayan
çizim
reş
örgütün
##ase
araştırmacı
trakya
talimatı
güldür
aleyhine
kütüphane
gezin
güvenliğini
oynanacak
merce
şayet
##ill
saldırıya
norveç
grand
oyuncunun
lad
uçur
ozan
##gele
kırım
dvd
sola
diyebilirim
##urn
iniş
akif
muc
başlattığı
duyuyor
##culuk
gitmeye
##abilmektedir
isterse
bürosu
üretmek
kanalında
geçit
müşterilerimizin
i̇statistik
##emedik
##esih
##idir
edemey
rehabilitasyon
kaldık
tümü
desteğiyle
yapılar
yakası
görk
konuşur
abla
##feti
resmî
akaryak
burhan
##üsüne
bakma
yapılmalıdır
çalışmasını
çevreye
sper
sorunlara
##i̇ad
pdf
maçları
##eyip
çalışmış
göstermiş
sevindir
görmedim
##dıma
amca
anlaşmaya
##taur
dağın
##gusu
riskini
ilgilendiren
125
yalıtım
##gir
##yordu
beykoz
görüşlerini
hacmi
kenarında
hedefleri
kobi̇
huy
##latma
almıştı
ayrılmış
grubunda
yaratık
hristiyan
kendimize
sağa
türki̇ye
grubunun
nakil
power
arar
söyleyebilirim
bakıp
##sunda
beye
ameliyatı
##lamaktadır
dat
koyuyor
bankanın
önünü
gelme
##90
gürcistan
ilkokul
cezasına
sınıflandır
geldiniz
sema
listede
##con
tutarak
##duğuna
kudret
##cis
##iyeler
arnavutluk
düştüğü
ailem
##amızdan
affet
soykırım
yararlanmak
##çin
kayg
naf
asist
çiftlik
##ılmadan
denizcilik
çevresi
itaat
##imer
mağara
baharat
tarafsız
yaşayacak
ödemek
##ağında
zirve
beh
##uluğu
##21
şal
şeylere
metr
uygulamak
sancak
aylarda
enstitü
kırmızılı
maddelerin
aktaran
sürülen
##þtir
cu
sahiplerine
##ert
pank
dondurma
##sir
koruyan
güle
ezber
evinin
voda
ısır
soğut
telif
nasil
barcel
liderlik
##ag
data
şikâyet
##tiğin
sahiplerinin
kaplı
uygulamayı
##fte
##bakan
işlemlerin
##sf
şarkılar
buluştu
gücüne
başlarında
menaj
ilişkiye
sars
kullanılmıştır
keçi
haberde
angeles
##yem
past
faaliyetler
damga
##ian
bık
etmedi
gecede
oba
eksiklik
yumurt
danıştay
##win
i̇kin
olursanız
filminde
danimarka
öğüt
ölümüne
yazıp
hususunda
##seler
doğrultu
##arş
papa
yasin
düşünüyorsun
##haleye
yetin
öldürür
avukatı
##lamasında
rahim
çıkarıp
soluk
guzel
hastası
##igh
tuttu
itfaiye
yatırımları
##erson
kıç
kalmıştır
sitemizden
temelinde
cazip
ky
bırakarak
vey
algılan
ediyorsun
cihazın
monte
i̇lah
peri
özelliklere
askerler
kıyasla
doktorlar
##anta
##46
onca
merakla
konuşmasını
görmesi
ceylan
termal
prensi
mülak
##ero
projesinin
riz
iseniz
dalında
club
depart
lg
tho
otoy
mahallesinde
##inceye
##mazsa
##osuna
mutsuz
şeylerden
valilik
gelirken
##sion
##eff
cı
ileriye
önemine
tribün
opt
optik
lens
değişiyor
yakınları
cn
##mayacağım
sandalye
cihan
seçime
gördün
inanan
##artma
çevrimiçi
beyazlı
elemanı
internetten
yaşanıyor
hersek
özeti
kuyu
atıp
çekilmiş
mühendisi
insanlardan
##esk
kullanıyorum
biriktir
bunlarla
##ılmalı
ayva
savundu
süresinin
manav
kapasite
taklit
özenle
gelebilecek
kurallara
##ilet
mb
cemil
yaratı
##ınak
üreticisi
##laşmaya
yarısını
versin
hı
ekrem
##ri̇
kuruma
değişiklikleri
pri
çözüme
isterdim
yeterlidir
gan
hun
bulunarak
##uth
yapıyorsun
çekiliş
imkânı
ataşehir
burju
oluyoruz
ürettiği
zorunludur
çalışmaktadır
tanınmış
cc
##sev
##well
törenle
dayat
hazırlanması
##teydi
##apur
tesettür
i̇f
olmayabilir
civar
kışın
ödülünü
gösterecek
##otek
üniversiteye
odun
geçerken
ödüllendir
time
##izin
haklar
vodafone
yayınladı
##iciler
tanıtımı
##aktif
##amayan
##tma
ellerini
verdiğiniz
çare
suikast
kuyruk
i̇hsan
çatlak
mekke
okurken
kiralik
##madılar
mezuniyet
koyarak
oynar
annen
ekranda
çocuklarını
uzlaşma
düzenlenmesi
düşmanı
imal
yapılırken
kilisesi
ai
takımda
eğilim
dn
futbolcular
töreninde
cla
satranç
bilek
##eliğini
##memiştim
başakşehir
##inizdeki
hallet
heves
açarak
açıktır
step
borsası
tahl
yazarlar
this
tutku
inat
biliniyor
ihrac
yerlerinde
kıta
sektöre
taktir
##gg
##ürk
saldırıda
markanın
##ırız
##adı
yaptığın
armağan
##jder
manas
##stı
sakınca
istemem
almanız
yorul
lefkoşa
isteriz
planlıyor
##bi̇tak
yönetmeliğin
erkeklerde
fırında
şükran
güngör
sabaha
kapsamına
örgütleri
kapsamındaki
##lerinizin
kaydır
sıkıntılar
sac
teşebbüs
vermişti
anasay
kası
sensin
olumsuzluk
##osh
riskli
iğne
okumuş
görünüşe
tutulan
##lamayacak
yahud
fare
törenine
kullanmayı
süpür
başlangıçta
birisidir
kurulumu
iştah
döküm
bra
restaur
değinen
bakımlı
kuram
tamamlanması
dersiniz
gazetecilerin
müsait
kili
##larıma
çem
barcelona
garantisi
benzersiz
sky
yanınızda
yardıma
ayrılır
metabol
çoğal
##başka
törende
odaya
abdul
niğ
oyla
yükü
psikolog
damg
kabak
##ladıkları
evliliğ
siirt
engeller
standartları
anlamaya
ortaokulu
havuzu
kaybetmiş
mesci
koşulu
kurallarına
mevs
grupta
şirketinin
konuşması
seg
dönmüş
gücünün
dist
götürür
gelinlik
şenol
##ılış
hül
versiyonu
birbirlerini
bölgeleri
neti
##rarı
haberin
tümör
hizmetin
yapmanın
zavallı
ülkelerinin
##üsünün
##madık
deplasman
yurtiçi
pilav
fikret
aksa
harik
##laşıp
habere
peşinden
kullanıcılara
gördüğünü
sabun
aydınlık
##layalım
gidiyorum
sanıyorsun
olana
##çıları
başvuruları
göstermeye
kolaylık
yıllara
davada
işleyen
döneminin
##ory
bireyin
haluk
bulaşık
bulunmadığı
çukurova
teması
işim
just
düşmesi
tabela
biter
golü
dünkü
##ti̇m
devri
lamba
finale
diril
feda
taç
müzisyen
zu
savaşta
center
ikincisi
##seydi
olasılığı
##ansa
group
##dıran
çevresindeki
takılan
olayla
şırnak
taraflar
kaybo
olmamak
ettin
vermekteyiz
kararına
iktidara
takımlar
network
hedefimiz
vil
bilecik
188
getirip
yapmaktan
latin
eşinin
eğitimde
istikamet
maf
##stein
gerçekleri
hükmü
gizemli
yeteneği
antibiyotik
belgrad
tüfek
elveriş
##sünü
mevduat
##main
öncesine
edebilmek
hizmetlerinin
fizi
sıkıntısı
yapi
##düzü
şiddetle
##lığınca
açıklamaları
vazif
durumunun
annemin
kafe
paraya
fifa
nevi
mun
kararıyla
bulunmuştur
##gıcı
yes
aktardı
holly
sektörüne
başvuruda
##imdeki
telefonda
garantili
soruyor
##hak
sayım
hukuka
porta
onaylı
kaçağı
haydar
##anak
bıraktığı
vücudu
##opi
bitkiler
psikoloji
merkezinin
getirme
masası
araştırması
kandil
hesabından
ailelerin
pic
meral
kibar
eği̇
akaryakıt
alacağınız
duru
insanlığın
tobb
tayf
kameralı
tuttur
170
##enlerin
##ansta
vücudunuz
katında
##ladığınız
##aşı
cahil
ut
destan
fiyatlarını
deyişle
ermenistan
bülten
gazetede
kuzu
eklenmiş
gitmesi
sahnede
tatili
ödemeler
international
tutma
klasör
altyaz
dışarıya
casus
öğretmenliği
##ılmasında
kanuni
selamlar
kullanabilir
uyruklu
alanların
görecek
aranıyor
##eştir
kaybeder
##dünüz
geçmeden
gündelik
korumaya
yog
mercedes
ağabey
vermeyen
ender
ihtimalle
##lamadan
atlan
beğeni
bölümler
aletleri
sürat
hort
muazzam
alper
##eceğinin
resimli
##mları
sloganı
jener
gereç
almasını
hayvanları
düşüncesi
hedefleyen
şükrü
##larımla
##melerinin
kullandığımız
kate
yargıç
geçtikçe
bambaşka
diplomatik
cim
##ladi
hükmünde
##oğul
tahrik
netice
kontenjan
gidiyoruz
koymuş
açabilir
eliyle
broş
##ýs
i̇nsanın
bronz
yöresel
ayıp
vermedi
##ruz
hareketle
satmak
yasağı
golf
##ifi
havayolu
ümraniye
bav
iri
##had
sanatçısı
görünümü
standard
elmas
hum
rüşvet
##yetler
free
green
##gm
arız
##yorlar
olaylara
öldüğü
ıslak
tanışma
rena
fakülte
gelişmekte
almakta
##mine
##taşı
haç
##ost
oluşturmaktadır
##oluk
havale
nüfusun
güvende
yastık
burdur
##osunda
##nel
sorulara
bilginin
gönderme
gezdir
##au
kentte
##osunun
band
##lad
seferinde
olunur
leyla
oluştu
bilemiyorum
başkası
cek
i̇şbirliği
seslen
aygı
##ırsa
göztepe
tübi̇tak
duyuyorum
yenilg
bilimi
edilip
müteahh
tanıyan
oyunculuk
harcan
boyama
olmadığından
##ûr
izledi
haklarının
nick
yakalamak
albayrak
i̇cra
göstermesi
şartıyla
yüreğ
europe
sorununu
zo
üçte
##ake
tedbirler
erdal
bölgeyi
emp
şirketlerinin
katılarak
dışa
eşitlik
##karahisar
oldugunu
sezonda
verecektir
tıkanıklığı
hü
sıraya
##ora
gençlere
göndermek
silahı
kahverengi
simg
sarımsak
graf
kıp
yedir
yıkım
şerit
bağlayan
azaltmak
devletinin
yerle
sunuluyor
çalışkan
##koç
taşıdığı
vereceğiz
##kuş
tereddüt
yapıda
otelin
##ememiş
zulüm
1987
##ileştir
merkezde
tutanak
makro
sağlamaya
birbirleriyle
öğretmenlerin
keşf
ardahan
##alet
kursları
dokunul
kendin
##pen
kartları
göstermiştir
şut
yeteri
hücum
şeydir
kötüye
rektörü
##lüt
abar
projeyi
belediyeler
öldürüldü
ekleyip
küs
tüc
##fice
değerlendiren
hayr
##ehr
yoğunlaş
müjde
şişman
dim
sordum
usd
geomet
düs
ilki
mücadelenin
##ağını
demiryolu
belirleyen
ettikten
##çam
kimseler
hatırlıyor
kulübün
potansiyeli
sunulmaktadır
çoklu
olman
##fir
##dini
##anızda
haftaya
destekler
tasarısı
içeride
##lıklarını
borçlanma
müsaade
kimler
dünyadan
indirimli
##atuar
mih
niğde
yasanın
semin
dikt
birinden
şişe
yakalanan
presti
##ech
##larini
donald
binali
tuzak
vuran
restaurant
##iyen
yüzlü
havayol
##lilere
dinlenme
müfettiş
anlıyor
güzelliği
nör
seferber
##ızda
yaklaşan
numaraları
but
açılışı
komit
otomasyon
##çilere
edilmez
tasarlanan
etmesine
bebeği
başvurular
hizmetine
açmış
##mese
opera
tuşuna
üretiminde
piyano
##sınlar
##eck
temeli
kapıları
surat
değir
##iğinin
harcı
##hh
tedir
dum
let
uzunluğu
##hem
tutmaya
kalitede
atlat
metod
sırrı
sürün
bölgesinin
dha
##ınızla
konusudur
öğün
gösterisi
yönetimine
kaide
makalem
ödenmesi
yapıları
ziyarete
belgelen
meryem
periy
bırakmıyor
##di̇r
olabilmek
yıka
polisler
gerekçe
##ayi
karıştırın
sarıyer
nevşehir
##arl
ziyarette
yapıt
magazin
gündemde
eğitimleri
kitabını
##75
olmayacağını
##cinsel
yapısına
ereğ
sıralarda
jose
kurmuş
artacak
yaşantı
krom
finan
canı
mühür
geçmişe
yapılma
khk
önerisi
yaramaz
havası
##kân
yazdım
##cm
uygulamada
cet
mân
dantel
esaslar
alacağım
##lasın
adresini
##lex
yorgunluk
bazlı
yaparlar
açığı
##usundan
makamında
teyz
haksızlık
krizin
durmak
gazı
vatandaşları
edilmek
##esidir
getirmeye
otele
##imes
hikayeleri
konserv
##larımda
sepet
yöner
anes
fotok
söyleş
marmaris
gecelik
akışı
##kurt
##45
pürüz
akı
bayındır
listesini
##akat
kusura
vaziyet
##leşmesi
geçirmiş
1988
içmek
inandır
temsilciler
yapmaları
denetimi
yüksekliği
imalatı
görülmesi
soruların
köye
##ınacak
harry
yumruk
##sinden
resep
mezhep
birşeyler
üyeliğ
çalışıyorlar
öldürdü
büyüklüğü
ödemesi
ilahi
girmeye
fey
kada
sapan
oğlunun
telefonun
ışıl
dinam
derse
yıldönümü
kısır
elemanları
##uğ
geçim
çeşidi
çavuşoğlu
başlangıcı
atilla
belgelerin
##hel
##akâr
##dirler
##erin
kadınla
şapka
yaşını
olmamış
öylesine
artırılması
eroğlu
ortaklığı
##omen
destekleme
oynama
##pas
inceleyebilirsiniz
##ilmesiyle
dileriz
türban
##mayalım
yıllardan
atıldı
seçmek
forex
güver
aleyhis
tasarımları
duyguları
##chi
arttırmak
ela
benzeyen
##lıların
admin
ateşi
sanatçının
burc
lee
##get
emine
ölüme
eği̇ti̇m
yaşadığını
##mü
geceler
oteller
biliyordum
unit
heyecanı
eşyaları
##not
evcil
sütun
lavabo
çocuklarına
##mayınız
üyelerin
ları
tabiki
marşı
##ebilme
reis
çalıştık
bire
sorununun
eklemek
faaliyete
tabiat
yargılama
eskisi
gelirler
adımları
##larımdan
çıkarıldı
babacan
english
##iğini
hizmetlere
dönemlerinde
soyut
nemlendir
sürdüğü
öğrencilerine
kısıtlı
önlenmesi
gelene
##veti
##kiler
uçan
eşcinsel
etmemiz
##sünüz
çekimi
düşündür
fant
yazarak
valla
doğrultuda
kapıda
doların
tarayıcı
anonim
durdu
##dest
dönüşü
incelemek
aramaya
plaka
##cını
zanned
vay
##vri
##ılmamış
##ılmaması
tems
i̇kti
yardim
testleri
üstesinden
eylemi
medine
dağılımı
kerem
christ
etkinlikte
yapmasını
forvet
toplamı
gelirleri
batır
oldugu
kiraz
sendikası
bilan
kule
ziyaretçiler
ilişkilerini
eyle
maçının
tedirgin
ediniz
beyannam
konuşulan
gizem
kalori
buh
cevaplar
değerlendirmesi
başkanvek
uygulamasını
kaybettiği
güçler
alanının
i̇mkb
##mb
ilköğretim
bayağı
öks
yazım
azalma
yemen
statü
1984
yapılacağını
nab
karşılığını
ağzına
paran
kaptır
şefkat
oynayacak
die
ameri
sayısına
atas
yüksekokul
değerlendirmeleri
gon
##ömer
merhum
içini
tablosu
hamle
senedir
sürek
##cem
kapılarını
##sed
bagaj
özal
bono
##reden
fiyatlarının
malik
manuel
faaliyetlerine
sorumludur
yakalan
##tekin
kurutma
kalkıp
ilçede
görüntüleme
rul
##rafa
görüşmeleri
##bağa
şampu
kadin
alınıp
yerlerini
##ledim
i̇zin
tetkik
limanı
okuldan
müşavir
gayri
elektron
baskısı
senedi
severek
ederseniz
rahatça
bektaş
severim
fur
iktidarı
1982
özlü
##stur
gecikme
belirleme
nedense
pomp
doğanın
renault
sistemlerinin
sulu
##vans
motif
1985
üniversitede
##burnu
dekoratif
viyana
kıza
şiirler
richard
##iyla
çarptır
sunulacak
ekibimiz
tuna
düzeltme
bilge
romanı
atıf
alanlara
izleyebilirsiniz
büyükelçisi
güzeli
##ikasyon
dönmesi
yardımcıları
okulların
ekranı
gsm
anlamsız
##pektif
##oğa
##bilmektedir
durumdur
sunacak
durmuş
görmezden
öksür
cün
konulara
##unuzda
tram
bulunduğumuz
geliştirilmiş
##lamadı
uğram
##26
projelerin
240
vatandaşlarımızın
verebilirsiniz
arkadan
1983
tul
bilgin
ultra
askerleri
rejimi
that
çekmeye
dehşet
manyetik
çaplı
levha
kalmıyor
kapağı
kullanıcının
partili
pyd
bulunmuyor
hom
##memişti
360
düzenlemek
olacaksın
havanın
ultr
sürümü
sağlayabilirsiniz
##batı
gençlerbirliği
kanuna
cenazesi
##ropol
##ll
kalmadan
daral
gelenler
milletimizin
kuaf
mahkûm
çıkarır
çalışanı
nokia
gidelim
reg
duymuş
tasavvu
##lığındaki
saldırısı
inkar
dic
konumuna
sr
##kinden
##meyeceğini
sular
yemeğe
dı
esrar
##ılmasıyla
algorit
adamla
başvuran
çekirde
izah
##lanmamış
sedat
kazakistan
gerçekleşmesi
tahr
##larınızdan
##ulduğu
bağlantısından
##33
kalarak
##ınızdaki
bütünü
fikirleri
element
diktatör
vakf
dizide
davranışları
mahrum
patlayıcı
dikey
sent
ölümünden
taşeron
##kırı
##minin
obama
girişimci
edilirken
##opol
temizlen
##tina
geldiler
alındığını
##cen
korur
oluşu
biraraya
çalan
kullanırken
##ýna
verilmesini
##rut
gold
vücuda
iftir
##mişler
yürüttüğü
prov
##haber
##lamasının
aleyhi
unsuru
ahlaki
orası
ortamlarda
ekonomisinin
##28
kılıf
canını
##ott
avantajı
girişimcilik
güçlerinin
kalsiyum
deyim
west
ülkelerine
105
filiz
diken
yoğunluğu
##olsun
##emezsin
md
gl
##ciliği
arıtma
büyüklüğünde
kullandığınız
ypg
yönetimin
sağlığını
yasem
antika
grip
bakanlığının
ekibin
devrimi
##çık
alamaz
rı
hülya
ciddiye
traktör
tesadüf
oynamaya
ütü
##acağına
mutabak
diyorsun
##lock
##ovasyon
manşet
ova
vestel
yanıtladı
sabırsız
özelliklerine
inanıyoruz
mara
hisar
arayın
selah
çizen
larda
düşündüğüm
epi
vatandaşlara
##ebilirsin
sözleşmenin
beceri
##99
firmasının
marat
hibe
fasul
##latıcı
geçersiz
yayınevi
bakla
tutup
ikiz
ohal
parametr
sigar
og
saz
##ileceğini
##ulus
duygularını
##lallah
##kö
##mişlerdir
dilde
matba
bilgisini
azınlık
zorunluluğu
yayınladığı
##eceklerini
balıkçı
yetim
saygılı
sırası
denemek
oranını
niyetli
##47
##iğine
charles
adından
müdürümüz
güvenle
stop
victor
##era
şafak
tümüyle
##yarak
bb
çerez
tâ
kuzeyinde
infaz
kurultay
çözünürlük
ihtiy
toki̇
paslanmaz
hatırlıyorum
bürokrat
lip
birlikleri
1986
biriydi
##ografik
aldıklarını
isteyenlerin
yönettiği
##iser
süreleri
alabilecek
fri
##leri̇n
##idin
kurulduğu
açın
atmaya
##ekkil
nca
gerçeklik
mektub
anten
sonucuna
ülkesinde
##ildikten
koleji
gitmeden
çıkarın
rüt
ifadeleri
desteklemek
avcılar
köle
okyanus
##malarına
kurarak
esasları
taşım
tos
mülteci
mutluluğu
tutu
bağlar
sıkıntılı
lokanta
##ürken
##mayarak
ödenek
salt
wol
mi̇t
kalmayacak
yazısında
çalışın
olabilmektedir
fırsatları
kın
##ağın
##lemesine
olabildiğince
rutin
erdir
##com
##sinler
##dunun
ortalaması
fedakar
sokaklarda
vida
hedefliyor
1974
şudur
olabilirler
##çağ
nus
broşür
düşüncelerini
##ky
kavr
birliktelik
araştırmada
toplantının
uludağ
gs
videolar
tunceli
office
silindir
maj
##lemez
görülmüştür
konfeder
kelebek
hediyeler
gov
pizza
çifte
oylama
karga
otomobilin
hesabını
ardında
hollywood
öldürülen
ekonomisine
konuların
nispet
1500
partiye
işg
xp
beta
oturt
seyred
##cağımızı
katalog
fm
tanıdık
sığınma
özetle
bi̇lgi̇
enstr
örgütünün
mizah
##ript
yayımlandı
karşınızda
santim
görüşmede
üretilmiş
ihracatı
mevlana
##amadı
ılık
hayatlarını
peşine
sevgililer
bakacak
tepkiler
gösterge
ayakkab
kapatma
wi
özelliğine
##layacağız
yatıyor
krallık
öldüren
olduğunca
450
##ümün
bahçesinde
yolunun
ipad
etkile
##yonu
##lıp
odaklan
hareketler
orgeneral
vip
##efendi
periyodik
font
adrese
##anılan
öle
##stro
porn
işletmec
azgın
düşünmeye
çıkarmaya
denklem
##ımızla
##latır
##bab
ipuç
##dom
aylar
sarık
listelen
çalýþ
kelimeleri
tersi
olaydan
haklarına
aktaş
nezdinde
karşısındaki
i̇ddi
kripto
##mann
yalın
fethiye
sanatsal
vücutta
yapılabilecek
vef
balığı
##tığınızda
diyordu
##liğindeki
öfke
bulamaz
thomas
şahsen
beklediği
okuyor
vamp
##uzun
öyküsü
aksak
dj
etmekle
sirk
bitlis
##tiklerini
öncülüğ
yardımlaşma
ebû
seçenekler
anton
abdur
line
##dos
##ligi
fazladır
hazırlanmıştır
barışı
taktirde
hükümdar
galeri
medyanın
dahası
hedefler
##cha
oluyordu
topluluğ
dikkatle
tercihi
yeni̇
##fl
üniversitenin
davul
hayalet
##now
devamında
suçlama
icat
sunuldu
lâ
paralar
tava
##cıoğlu
hazırlayan
alandaki
bürün
##lüğün
ekleyerek
zil
dilekçe
sevdim
görevinden
imkanları
temyiz
alakası
arkadaşlarının
kıvam
savaşçı
silikon
dolaşım
birbirimize
bağı
tarikat
i̇ttifak
##lıoğlu
kullanımının
yüzbaşı
söylemeye
şansını
şiiri
afyonkarahisar
##amm
kapitalist
dolgu
##lib
görülecek
##ning
geçebilirsiniz
toplayan
coşk
egemenlik
atölye
tipik
prestij
dernekler
bebeğim
##gc
aid
âlim
ekibinin
##bahis
wordpress
terminal
favori
##laşa
uzantı
telefonları
tedbirleri
kurye
kanalları
mazer
sevindim
parlamentosu
##digi
çalışanlarının
çiçekler
asistan
ertel
##lığım
##tý
kocam
dram
köşesinde
devasa
bulunabilir
##hret
verimlilik
uğrayan
##lağı
verilebilir
hazir
hükümler
erbakan
##duğun
bakıyorum
ruhunu
tanımak
kontey
müv
kurmaya
süresini
ısıtma
eda
çakmak
islami
almıyor
beklenmedik
186
ulaşmış
tüccar
##rit
tarafların
eğitimler
yapabilmek
hedefe
coun
modu
kızların
damat
çekilişi
yakınında
farklıdır
bilirsiniz
alınacaktır
yöntemlerle
kâğıt
hemşire
rüzgâr
korkmaz
sadakat
yoksulluk
demokrasinin
üreticileri
kontrollü
ötesi
çiğn
##sl
söyleniyor
verilere
baskılı
ereğli
edu
çıtır
nav
arçelik
tutacak
kaldırma
aklınıza
buzdolab
faktörler
##imine
ayarlar
gölge
cia
mö
anlamını
evlenme
duyduğum
i̇zzet
hallerde
sağlayıcı
gerekmez
ekipmanları
sinin
kuşku
olacaklar
etkilerini
sas
kuşada
manastır
yüzleş
##ens
##lop
girdim
hoşuna
hastalıkların
öğlen
sözleşmeler
aradı
oluşturdu
olmasaydı
tozu
cab
paylaşımı
azdır
oturuyor
göreceğiz
kev
kişilerden
##mil
dedikodu
kura
tahakk
nakli
markalar
yapabilirim
abbas
##teri
zalim
batarya
kullanımını
anlıyorum
zeh
mahallede
defteri
libya
##cısının
dağıtı
karşılayacak
iddaa
##ware
britan
entel
deneyin
içermektedir
ayarları
muamel
yaşındayken
babalar
yin
radyasyon
zekâ
gönderen
metni
izlerken
kullanılmak
gazetesinde
münaseb
kaset
mensupları
müşterilerin
kayser
tiş
oluşacak
bırakıldı
ölümcül
gelişmelerin
##tions
stk
##iro
geliştirdiği
arkadaşlarımız
bonusu
üçgen
bh
noktadan
koordinatörü
seçimde
tasarrufu
görevlerini
evinizde
##yumu
acar
bebekler
girme
linux
kolester
yerlerine
caiz
##alın
yayılan
iğren
##leridir
i̇lkokulu
oluyorum
vermekte
alalım
okuyup
kalabilir
çiçeği
emperyalist
kurabiye
leon
tavr
sibel
bildiren
öð
karşılaşmanın
kullanmış
kaka
eleme
davranıyor
yazdık
##ike
duygular
durup
düşkün
amaçlayan
iddiaları
züm
toplamak
anımsat
##ıyorsun
karşılama
arat
kak
kerk
fam
##cas
almaları
karşılaşı
değerinde
istenmeyen
##unacak
çıkmasını
unuta
##üldüğü
##lemeyi
##etiği
bileşik
##hz
hükümete
yaşlarda
ilinde
hatları
baska
universit
##ery
roket
alınıyor
papaz
##lenecek
çocukluğ
güzeldi
çevik
öğrenciye
##acaklar
monit
yıpran
hazırlıklarını
mülakat
birbiriyle
dyp
##uta
##chester
bakıma
yerleşik
esp
yetiştiric
konsantr
mahallenin
duvara
##ox
kanama
rom
sonuçlara
tartışmalar
tanıştır
aksoy
giderilmesi
turnuv
kazanarak
kullandıkları
rehin
forumu
ayrılma
görevler
sertifikası
ejder
ödenen
fun
butik
sınavına
##dio
göbek
born
anor
ediyorsunuz
##taz
salın
tarzda
restorasyon
güvenc
pazarlık
isimlerin
barajı
azami
ncı
önünden
hayatımın
ellerinden
iddianam
zed
uygulanabilir
uğraşıyor
olabilirim
rön
fantez
ov
kazasında
mike
getirdik
pekiştir
ordusunun
puanları
beylikdüzü
lokal
##ilmemiş
kapısını
petek
şöhret
konv
salak
##lic
problemler
gazetesinin
oyununda
yılki
sanatları
185
##üyü
##alıyor
##48
hası
##naz
annan
vurgulayarak
##hassa
ulaşması
sperm
selahattin
yaşıyorum
fikirler
##sch
saate
tunç
istekli
bilirk
programlama
bitirdi
tö
kilogram
1920
imzalanan
##mýþ
bugünlerde
cast
hatırlattı
kaçış
##dilerde
protokolü
verebil
gerçeğe
belirley
##lıyordu
orgaz
müfre
başsavcılığı
##rr
esad
gercek
yenerek
perspektif
arabayı
değerlerini
##lev
değerlendirdi
konuma
atacak
medeni
dinler
kapsamı
your
eklenen
duruşu
stadyum
##acaksınız
mücadeleyi
gerekenler
lezz
bilhassa
üstlendiği
akhisar
##inat
0212
taner
teyit
sanıyordum
antal
sovyetler
aff
alınabilir
coğrafy
kıvr
doğmuş
##meyle
##hidrat
##bai
geliyordu
işlevsel
##gön
bostan
sesle
biçiminde
çocuklarla
üniversitelerin
aktivite
bırakmış
##emeyeceğini
##̇m
##dekiler
bahçelievler
kuaför
erkeklere
atanan
##ağına
##kadir
edersiniz
müstak
çıkmasına
taks
##ision
kapasiteli
önceleri
takas
yetişen
##îm
yarışmaya
beklentileri
sindirim
konuşurken
gökçe
yakalama
aralıklarla
odtü
hususlar
atv
evlerine
##ql
cemiyeti
##iyes
karton
indirmek
türkiyenin
üstünlüğü
izlemeye
coşku
tamamlanan
taslak
##binin
##memizi
hiçbiri
mümin
yararına
sağlamış
oğlan
yurdu
mont
çalışacağız
dediğini
işçinin
mantığı
##ünüzde
pur
kerkük
azar
yönetimindeki
yýl
ahiret
auto
kolesterol
yeraltı
buzdolabı
mutluyum
hard
mücev
##bra
##sana
##zaj
##itli
hatalar
derya
açılıyor
ekleme
tekrardan
imp
yasadışı
bölgelere
şefi
##jer
titreş
2020
raporunda
ortama
##29
heyecanla
dille
dop
köpeği
çıktık
kırıklığına
samimiyet
farklılıklar
kırşehir
dağları
##âye
tanımlanan
düşünüyordum
hoşgel
işlerde
planlar
tasdik
tutarlı
akıntı
alanını
içeriyor
##zim
kulesi
##ebe
çankırı
değerinin
olmakta
inceleyerek
söylediğim
penis
yansıtan
nba
yöne
kazım
yaratıyor
fiyatlı
gönderilir
durgun
dindar
geçirme
kürtler
sağlaması
fragman
tahamm
##labilmesi
oyununu
danışmanlığı
tolga
kişiyle
gerekiyorsa
kayın
uyguladığı
davalı
##77
müdürleri
yatırımı
toplantısına
sünger
eczacı
##üfer
yürüyen
doktoru
ım
hakkının
kalkar
askerlerin
çıkaracak
belirler
örüm
##salar
##gız
i̇ler
##jet
enver
üniversitemiz
sağanak
çiv
##viv
hurda
ahlâ
sürücüsü
jin
ölümsüz
sesler
taşımacılığı
taviz
neb
pah
exp
ayından
daimi
aralar
kapıdan
cildin
beklerken
binalar
hacet
fiili
benimsem
zinciri
##ock
tanıklık
muhatap
grubuna
başör
kl
##þý
##emezsiniz
yıldızlar
hataları
bekar
kolej
içerikli
müess
yığın
satışları
asay
sorunlarına
tehlikesi
##nın
talip
katılır
gözünü
serü
maçına
bilinci
maddede
umudu
favor
##kapı
molekül
hırs
eger
##nü
olunan
mühendisleri
##cc
anlatılan
paragraf
endişeler
polik
##raj
ulaşabilir
##oyun
mücadeleye
alkollü
pislik
yans
ayıran
portalı
##tane
özgüven
ikisinin
yayınlan
rahip
arkadaşımız
söyleyin
faaliyetlerinin
öğrendik
kurak
##leştirmek
##yın
öğretmenlik
başkalarına
ideolojik
##ath
kişilerde
harekatı
tatile
girmeden
hesapları
başkaları
over
alınmasını
nesne
oyu
bartın
seçimlerin
kayda
savunu
yüksektir
charlie
hukukun
sâ
##teyim
love
açıklık
barbar
götürüyor
tadına
modelini
etmen
##ûlullah
mutfağı
çarptı
şartlarına
kırıkkale
kesici
##onomik
yapacakları
filmini
fikrini
zevkli
iyim
kazandıran
birisinin
##iyeye
konuşmayı
dilini
bolca
özürlü
sera
uçağın
sonuçlarının
fesh
açıklamasını
sempozyum
katına
##dırma
belirlenmiştir
filo
şiddete
söylemem
çıkarsa
yapmıştı
zıp
kalmasını
philip
adamım
akvar
##arat
tasfiye
konuştuğ
müslüm
kaynat
taleplerini
taşıyacak
##star
beklentisi
kostüm
hastaya
skandal
eskort
alabilmek
noktalar
arkadaşının
yarımada
etkileşim
nce
formunu
kurumlarının
yatar
mucize
vereceğini
aro
senesinde
##ilmesinden
aksam
alacağız
##mezler
##oterapi
söylüyorlar
kategoriler
ifadeler
seçerek
maymun
yasemin
##uluğ
##oksit
ibr
tasavvuf
erotik
makarna
nerden
kişilerle
şüphelen
burslu
##emeyeceği
duyu
diploma
henry
sahibine
##diz
geçtikten
fuat
##sor
servisleri
kıyafetleri
yollarla
nota
bitmiş
##iymiş
allahü
alin
başkasının
görüştü
##otu
ebe
faks
koruması
anat
ilgilenen
nüfusunun
sonda
firmalara
tri
şiddeti
##temiz
zom
golle
kardeşlik
altıncı
kabiliyet
yaşadıklarını
çocuklarımızın
eşyalar
altun
öğrencilerimiz
araca
pişirin
kontör
##ıldıktan
turnuvası
istediğimi
piknik
kuk
##eller
plaket
##war
yanık
hamza
işver
##cağınızı
grupların
kursiy
bordo
ehli
nah
##ilmeyen
manavgat
gazetecilik
istiyordu
oluşturulmuş
makinaları
berabere
alaş
kamerası
cidden
gücün
formula
biyoloji
5000
i̇mza
turuncu
basında
uzunluk
yolculuğu
ihtiyaçlarına
planlı
trip
raporları
nilüfer
##müştü
fox
zıt
çarpan
##uri
okuduğum
derecesi
##larlar
bugünün
köfte
verilecektir
ağzından
##nie
bulunduğunuz
yöneten
değiller
sağlığ
cans
##lekli
oluşması
ekiplerinin
görkemli
##laman
ülkemizi
püskür
görevde
sitelerinde
yapabiliriz
elverişli
bölümün
mukad
##44
jer
özü
geriledi
iktidarın
ünü
vik
##dirme
bayi
bayanların
bahan
paylaştığı
karakol
kuşadası
cömer
seda
zamanların
tahıl
diger
evlerinde
irtibata
çabası
değirmen
kabullen
sunumu
oros
memnuniyetini
##ms
are
şimdilerde
##dığınızı
etmektir
haftalarda
aşağıdak
sporları
cildi
savcılık
getirmiştir
##zı
pub
ağzı
##iliğine
ergün
##ibe
saldırıları
##iyeri
uyuy
evini
saklama
ateşe
hissettim
desi
tartışmaya
intikal
maaşı
##elek
kocası
tabip
çalıştığım
yönüyle
tabur
meteoroloji
sihirli
eller
##ektör
##nat
düşünülen
rakamlar
masaüstü
üretime
önerilen
i̇kincisi
miktarını
finland
mama
riba
joe
metrekarelik
magn
gözaltı
boncuk
kafasını
##lamıştı
düzensiz
başkanvekili
kadrosuna
kaçtı
askıya
##ehan
geçirilmesi
üretimini
sözkon
sunmaya
##geb
##eköy
cy
finalde
toprakları
sağlığına
bırakılan
aktara
çıkmıştı
kaynaklarının
pier
vinç
more
veysel
kn
hitler
mazlum
galak
ece
filtre
##andan
wik
bulunmadığını
eğitimine
orkes
tarık
yalıt
incelenmesi
etmeli
kısalt
deleg
##eyecektir
dediğin
fonksiyonu
beyefen
##arch
adresinde
ilacı
üzücü
şölen
yapabileceğiniz
oluşumu
##trik
##vantaj
cro
siste
##şener
fbi
verdiklerini
daniel
gab
demeç
elinizde
orkestr
paylaşan
yapıların
edenlerin
gösteriş
konyaspor
united
şahsi
##ülin
yönetmenliğini
sebepten
mesleği
salat
alanlarının
ekonomiye
##lali
##eğinden
piyasasında
takımını
tuncay
güce
meli
sunuyorum
##oş
afiş
kimliğini
pazarında
aradım
##bus
##latmak
kullanabileceğiniz
mi̇l
simdi
başkanlığını
yanda
sorul
##olasyon
bavul
tahrip
binasında
##eyiz
sinek
hazretleri
gelişimini
edilmişti
aln
dahili
marş
bildiri
##oç
binaların
renkte
gasp
aralıksız
##eğimiz
anki
##amın
tuzlu
tedaviye
bırakıyor
deza
hediyesi
olalım
belle
##db
deð
siparişi
tony
abdülham
gazetecilere
gizlice
tura
katılımcılar
gitmem
zorunluluk
##mamalıdır
bedelini
##burt
topçu
arabası
##rahman
erim
cömert
yayına
görüşmelerde
metot
##lileri
will
verelim
##mıs
##rian
aralığında
##eto
##layacağım
salonda
##53
affed
fiat
maçlar
nedenini
geceyi
isimlerinden
sınırlarını
saniyede
##layet
havuç
seçimlere
sup
çip
##bih
##çılığı
başlarına
girerken
##lüğünün
götürdü
halep
çember
edine
diledi
emret
akre
##tiğine
eklendi
yakup
davacı
maksa
bazılarının
bari
##ladim
firmalarının
başkasına
##hr
sözkonusu
arttığı
mikrop
kullandım
tadilat
kullanıldı
uygulamaların
döşeme
ürünlere
sendromu
duyma
karbonhidrat
tutulur
venedik
müvekkil
##iller
osmaniye
trafiğe
sanatçılar
çağlayan
korunma
kurtulmuş
dezavantaj
zannet
##emiyoruz
iğn
iddiası
bayanım
harun
tabaka
katılımcıların
akbank
verebilecek
kolye
laboratuar
işlere
ölçme
malzemelerin
gaf
dönüştü
yiyen
seçiminde
mücevher
zenginlik
said
bkz
amaçları
##dığımızı
belirsizlik
susuz
ilişkilendir
özdeş
moğ
mahalli
kırıl
pırıl
cop
garaj
harici
##86
oluşmuş
mehmed
##cý
dostlar
hâlinde
alık
yapıcı
kaynaklardan
düzenlenmiş
sonucunu
belirlenecek
talat
##larınca
arena
ipek
cesedi
i̇ktidar
geçmişten
ödenecek
değiştirilmesi
geminin
##âk
turizmi
hergün
gözlü
##ayip
çimento
yiye
anasayfa
kapının
store
##dinin
uysal
amazon
geçmiştir
dsp
necdet
kamil
şebekesi
suyla
gps
sihir
yatakta
yollardan
yaparız
görüşünü
havadan
norm
benimsen
silivri
##ado
millete
kompozisyon
çağı
yürüyüşü
##nde
sevdiğiniz
hazırlamış
cumhuriyetin
defans
zorlaştır
hareketin
şaşırt
nemli
##ramanı
oynarken
zehirli
hızlıca
sorusunu
akşener
kıskanç
color
yaşadığım
devletlerin
##ilmeden
##akip
##vas
öngören
elime
gidermek
##enni
katolik
çubu
sınırlandır
##ст
##iko
arkaya
dengesiz
prat
hediyelik
kırış
kılavuzu
etkinliğe
medikal
soygun
verildiğini
terapi
##irdi
tabanca
belirleyici
başarıyı
sağlanacak
dizisinin
##31
##atik
niy
viet
wa
amacına
filme
inkâr
utanç
yarıyıl
rabbim
diyenler
şirketimiz
duvarı
fizy
stratejisi
##eke
##laştı
olanakları
söylediğini
read
101
kullanıcılarına
taraftarı
programlarına
zayıflama
parasal
##zade
moğol
yayınlar
##ule
##kele
hatice
osb
izleri
##diyse
bilmiyoruz
duruşma
kültürünü
çıktığında
kürtçe
yetkilisi
verilerek
kalsın
##onomi
sevgisi
fiber
kaynaklanıyor
##ves
alanlarına
köpük
getirin
taşınması
garson
ergin
##leştirilmiş
olabilirdi
ülkesinin
ötek
oldun
üstünlük
abdest
peygamberimiz
yapacağımız
futbolu
telsiz
önü
gerekebilir
##dro
azalır
sanıyorum
istikrarlı
şarttır
büyüle
olasılı
kremi
konuşmacı
##günü
silahlar
ai̇h
kalmayı
eta
li̇
sorunlarının
##ings
##sene
##subay
kraliyet
yılındaki
üssü
zap
buyurdu
girmiştir
tercüman
ulaştığı
imzalı
güçlerin
hastalığa
smart
doyur
akrep
katta
ilerliyor
gerginlik
devi
internete
gençleri
ciz
seyirc
##ink
##lid
gündemine
ödüllü
kalmıştı
##beyli
uygulamasına
paneli
iğrenç
görünmüyor
tasarımcı
suçlar
şerbet
house
ayakları
yanıtını
sayfaları
##male
anlatacak
kaybolan
iyimser
dc
füze
##sur
zabı
fars
rastgele
bayburt
bedensel
##elerdeki
fikrim
fıkrası
güveni
fırsatlar
hikâye
##ðu
yakaladı
hisseder
yenilenebilir
##aslan
mekanizma
##ıncaya
süreçleri
jun
liv
iyileşme
evlenmek
boşuna
kuruluna
çıkınca
tatar
##ordu
128
büyümesi
saldırılar
iflas
yükseklik
##ilmekte
evlerde
##sah
çevren
bittikten
belirlem
başlatıldı
türkleri
isteyenlere
notları
muzaf
kontrolünü
arabanın
taşıyıcı
##duğundan
belediyenin
aşkına
kireç
##dut
ısrarla
ortod
##ditasyon
giderler
ünitesi
şahane
maçtan
dosyasını
i̇kili
##km
ete
sorulan
hidrol
patlı
neşeli
nobel
##55
##elerce
ürdün
tasarımlar
eğitimli
2023
hile
arttığını
suları
bayraktar
indirme
tekerlekli
kültürünün
ortaklaşa
##dığımızda
ödemeleri
##lerek
verirler
yöntemle
kırgız
tasarlanmıştır
cenk
telefonlar
sağlanmaktadır
karşılan
araştırmacılar
çalışıp
##iliğinin
ebat
yasama
antep
başlangıc
sürt
kolaydır
siyasetin
##̇r
dogru
parayla
hammad
gezgin
emisyon
delikanlı
kazanmıştır
kahramanı
liter
tutuş
üretiminin
sapta
müteahhit
sümer
##lerimle
yaşındayım
arkasındaki
zaferi
klavye
esra
işleyiş
cü
sitesini
##lenmesini
gündemi
kırklar
önleme
##bia
yanıtı
kaynakların
severler
cisim
doruk
incelemelerde
düşünmüyorum
şikayetçi
##yuz
kola
720
algılama
tamamının
düşme
yazımız
karah
cup
üş
markaların
tezah
##ico
sorunlu
denizin
yürüme
koştur
##lâh
kışkır
##ue
##zo
yapılışı
ilinin
merve
inancı
taraftarlar
yapman
suresi
yayında
##cük
##cılığa
durumdadır
##isyenler
yatırımcılar
üyelerinden
uygunluk
kafası
takma
ayrılmak
tahsi
aksesuarları
başlayınca
yeh
olursun
işlenen
##boy
hacim
calis
yitirdi
yapımında
##elerimiz
gerçekle
iptali
menz
##ılmasından
arkadaşların
##âzım
gitmiyor
şirkete
ikisini
buranın
devret
veririm
##fabr
elleri
tonu
cezay
dokuma
aykut
dönme
boğa
müziğin
faaliyeti
getirdim
uğramış
##our
küba
seferde
##latör
modellerini
baktı
işletmelerin
itibari
mirası
i̇li
sayan
buluşan
ال
##kiye
bilmiyordum
çerkez
askerin
başlarken
vücudumuz
işleminin
eldiven
simgesi
aslına
almayan
mız
temelini
likit
erhan
deniyor
hida
##mezse
gümüşhane
ucuza
saatten
pazara
spot
##iğinde
vites
memurları
##lenmeye
ülker
anayasal
sıralar
##amayacak
faizi
numarasını
esnada
gösterebilir
etkiliyor
bölgeden
cemiyet
okuyun
excel
muzaffer
akut
çatısı
edeyim
yıldönüm
başladığında
ölçek
yazlık
bahane
hazırlanır
törene
artik
##esco
varlıklar
bark
getirmesi
ekonomide
tavşan
parçacık
liderleri
öldüğünü
tk
hücreleri
haftadır
azı
##mark
ailesini
##dükleri
alacaklar
endon
##uza
düşünüp
ayağ
verimliliği
karp
##ekon
mine
francis
işlemlerinde
orgazm
istiş
domain
sekilde
emel
mürekk
brun
kampanyaları
seviyesini
ayık
komple
mensubu
wo
dilinde
mola
##sindeki
rengini
öğrencilerimizin
yeryüzünde
zabıta
##еr
namus
güçsüz
anlayacak
kategoride
put
lord
reyting
altan
toh
1979
tff
ikimiz
öylece
ulaşımı
anısına
turkey
mukav
mensuplarının
istasyonu
fert
öğrenmeye
manchester
haykır
karas
iltihap
kaybına
söylemiştim
yaratır
baha
parke
mt
husu
montajı
i̇kiz
##ilmemesi
yüzünde
samsunspor
##tığımda
##laşır
neydi
sunulması
görüşmesi
kütle
topa
hikayeler
doğrudur
##ture
##ezya
köft
european
varmı
life
korkuyor
asayiş
tercüm
paydaş
##bahç
edinmek
basarak
##esan
shop
yoga
çilek
etapta
kullanmanız
once
mevlüt
anlaşmanın
##formasyon
çağırdı
##key
belirlediği
cık
hamdi
bırakacak
jones
3000
açik
resepsiyon
etiketi
uykusuz
##iyye
koşullarına
##vis
söylenebilir
bilgili
lcd
karşılaya
uza
gizle
pit
işlevi
sembolü
##mayınca
siteyi
evlerin
##leksi
gelse
1981
uzunluğunda
öneme
##die
teras
bob
##tüğünü
##enizde
hamuru
##trol
belirledi
kullanılmaya
cephesi
üretimin
##yıldı
boyutta
##39
deği̇
phot
halkımızın
hayatımı
arkası
fotoğrafını
etrafta
çinli
tezahür
sonrada
bölüme
##hon
alırlar
kendilerinden
sağlayabilir
drama
edebiliriz
##venin
hakkın
balkanlar
indirimi
çıkmadan
olanın
brüt
bürokras
sabahı
pozisyonda
durmadan
eserin
soruşturması
yalancı
manzar
220
yuv
arabul
kesilen
sonuçlandır
meg
yönetimini
##hy
bbc
çekilmesi
##ptom
onlarda
piya
tunus
music
barzan
gösterdiğini
##landığında
yaşadım
fincan
arınç
üreme
kızının
astsubay
felç
örümcek
şeklini
börek
dp
türkiyede
##umdan
belirtilmiştir
dikkatleri
kaldırım
sakinleri
detaylara
kapatmak
vietnam
##ilirse
##evî
edince
sıfatı
entegrasyon
takımına
poker
aralığı
yerinin
hikayesini
düşünceleri
davetiye
dolma
dönecek
i̇şe
yetiştirmek
dolduran
cle
muydu
##mazsınız
##ozof
jes
ki̇
bahsetmek
zirveye
yaşanacak
##riz
kazanması
merkezlerinde
bru
cinsinden
katli
çekmiş
dağıtımı
fotograf
gezen
##liğimiz
fıkrasının
##arız
dakikalar
saraç
##egöl
tanışmak
tamamlamak
teğ
dosyayı
geciktir
düzenlemesi
##itz
telaş
##uch
##biliyorsunuz
sül
antalyaspor
cihazların
istiyordum
değiştiren
tişört
güneyinde
damgasını
tanıya
başlanan
etmişlerdir
süslü
bilirim
rezil
yaratma
class
gelişmelere
ziyaretinde
##hol
les
ebed
kazanmaya
mudur
##mazsın
saatlerce
üvey
deposu
##enizin
biliyordu
binada
hos
kullanması
kirp
##acağımız
alim
ülkemizdeki
cezaevinde
çoğunun
öldürmeye
seviyesinin
yatırımcıların
##all
münasebet
ortaöğretim
mahkemenin
telafi
evdeki
tabanı
görebilir
sürüldü
clin
çizdi
pazarda
kw
fıs
muht
##ladıklarını
yanan
##işan
çıldır
etkilenen
sanayic
cav
audi
savaşları
dokusu
fantastik
sanığın
efekt
##ardı
yerlerinden
uyanık
ankaragücü
puana
davranışlar
##sunu
##çılı
##masındaki
riske
ciğer
geçme
system
##raft
yakının
semih
yetiştirme
piyasalarda
##hun
dolayısı
güvencesi
jel
yapılmak
liderler
temelli
derinden
yazılır
gözüyle
azaltır
katılmış
herkesten
yaygınlaştır
##ürt
değilmiş
istekleri
şant
erkekleri
geçiriyor
asıllı
yahya
ekşi
ilkeleri
etmeyecek
turda
akımı
çocuğunu
kapa
dokunuş
i̇tü
ülkü
bölümden
nay
habersiz
ulusoy
girne
kafasına
britanya
107
mamul
kalabalı
veriyorlar
hist
##eddin
finlandiya
nüs
sevdiğini
kesiş
bakınca
antioksi
##ızlık
metropol
adliye
##dad
duyduğunu
işlerine
performansını
araçlarının
âşık
sellem
##ceğini
anlaşılıyor
topal
hamas
yazımda
çorbası
kamusal
karım
birbirimizi
katled
söyledin
vekalet
pekâlâ
acayip
çocuklarımız
binden
##field
genc
konseri
##dex
dinleyi
anormal
##deleri
mültec
yy
##kala
tembel
döng
##tayı
dara
bud
lpg
kızla
intel
militan
kasap
çalıştıklarını
##kam
temenni
diri
##onsol
##ng
semptom
sayılmaz
stabil
tamamlanmış
from
kolaylığı
milyona
yaşanmış
##kül
topladı
başarısını
ergenekon
tahammül
akça
iklimi
koltuğu
ayarı
etmelisiniz
vasıf
aygıt
dayanak
basıncı
pala
tazminatı
cenev
##sıyla
yatağa
ucunda
metrelik
protez
yurtdışına
serisinin
otoyol
sporcular
yokken
götürmek
topraklarda
eklent
dengel
##38
hidayet
prefabr
que
ablam
adaya
##etin
tahlil
evl
oturdu
tüs
teknolojiyi
gurbet
sözleriyle
kuvvetler
işlemci
##kov
##ito
sürerken
##try
esenyurt
üf
bankaya
ulaşma
kanıtı
##ugh
##verdi
söylerken
kırtas
necati
başsağ
filistinli
cinsi
ntv
dalış
bozkurt
çantası
otu
melik
cur
adanın
gelelim
##ağan
matt
##37
kapılar
olmasıyla
seçeneğini
kamuoyunda
döndüğ
##okal
isimlerini
kademe
antioksidan
kraliçe
yaman
##bn
birisini
elin
##ledik
hazırlıkları
şampiyonluğu
dilin
gaziler
cocuk
##imdir
öğretmenin
çabaları
saint
taşıdı
saldırının
flaş
##gh
soyadı
yamaç
birilerinin
kılmak
filozof
bakteri
tanır
tecrübesi
sempat
ısınma
##ilince
##oya
nazaran
uğradı
bik
çör
taşları
başlayın
kurumlara
müşterinin
##kit
ıslah
göğs
kente
yetkililerin
partil
bakanlığın
müşterek
yiyecekler
açıklamak
ünite
kahka
şekillerde
biletleri
fonksiyonel
i̇ktisadi
##elerindeki
tutmuş
bıraktım
cinsellik
i̇şi
dükkân
##ımızdaki
çark
##eleyen
katılıyor
bağcılar
malta
##elisiniz
olanlardan
fotoğraflarını
görevliler
imzaladı
gördükleri
##enha
bilgilerine
köşk
##ünikasyon
yürüyor
çizel
##forma
saçlı
erkeği
##lülük
anestezi
doçent
nevzat
##eli̇k
istifade
##kaz
düzeye
##tia
aileye
kuralı
takviye
alacağını
kısmından
##furt
koyma
dolgun
donanımlı
1978
mâ
kodları
alınma
pl
sað
taşınır
amaçlar
günümüzün
yönetime
##oğulları
yöneticiliği
evrenin
yağma
civarı
i̇tha
karşılaşacak
davayı
istendi
uygulamasının
bedeni
şarkıyı
##tanı
bosch
##sche
görüşmelerin
tapına
hazırladı
seferleri
bütünleş
nedenlerden
asma
koşullarında
sürenin
sıla
alo
##cili
maske
bakkal
yazdığım
trafiği
kriterleri
##ezz
##cısına
görebilmek
karşılaşmada
sitemize
atölyesi
sızdır
ortasına
köse
##meyeceğim
bağımlılık
yapısının
haberlerin
##laştırılmış
yokmuş
olmazdı
##irsiniz
kuyru
mekanı
golden
gencin
info
işinde
söylüyorsun
yemiş
olmamasına
alda
##lanmasının
yazıyorum
##urlar
gerçekleşir
surviv
unesco
clar
##iþ
##çıların
unsurları
becerileri
##üste
aktarmak
nut
içerdiği
##mayanlar
milletinin
##asyonlar
serhat
kıyafetler
ateşte
duyuyoruz
başsavcı
##lamalı
bilgilerinin
fırsatta
msn
##mışlardır
rütb
atandı
ilaçları
kurumlarında
belirtiler
elec
comp
karşılayan
rahmetli
yandaş
edilmeli
hong
denizde
yapayım
##taraf
geliştiren
mahsus
sosyo
yugos
vereyim
##eni̇
adımlarla
düşünmüştüm
zenci
sempozyumu
açıkladığı
sivri
başkonsol
prodük
gitsin
kiloda
yanlarında
taba
yavr
##seydim
bulması
idrak
işlerinde
pvc
arist
ulaşır
cür
gerekmiyor
ang
##abilirim
hakikaten
yardımcılığı
115
şunlardır
projesinde
tavrı
##giniz
hastaları
münih
i̇htiyaç
##banı
toprağı
ein
amiral
anlayan
psikoloj
doğduğu
birikimi
erciyes
sınıfa
ög
erg
büyümeye
sebebiyet
##eliler
maksat
alacaktır
akvaryum
kilometr
##laha
isteyecek
önerg
##lap
kararla
ilişkilerinin
##saydı
bmw
projesini
savaştan
başkanının
hizmetlerinden
vin
konulardan
ilgilidir
yörün
kısmi
düzenlemeleri
kürsü
##nia
yatırımların
##iyeleri
çelen
##hab
##cle
hidrolik
hekimliği
##nı
bilal
açıklar
tutuklama
soran
alerj
iadesi
yöntemiyle
koleksiyonu
kullanıcısı
etkileyecek
eğr
koktey
sinde
##biber
eserlerin
atılım
basar
saçları
hacettepe
altındadır
hissediyor
atlas
savunuyor
##eledi
inek
fazilet
önyar
cadı
mega
##akı
önems
fiilen
ub
gelişimine
diliyoruz
##cial
##beş
siyaseti
yugoslav
busin
randev
espr
##rasya
total
borçlar
akıncı
1975
hilmi
değiştirdi
lut
##lamasıyla
cun
müşterileri
sistemiyle
tarife
çıktım
suçları
toplandı
yanaş
izledim
umum
uzer
##ýlý
enjeksiyon
ölçüt
şartlarını
##yık
kafayı
hün
bulantı
modem
kanunda
unsurlar
##îr
anlatımı
kadroya
ilkesi
hepiniz
maliyetleri
başsağlığı
çekecek
reut
dama
uslu
getirilmiş
yahudiler
yarışmada
telekomünikasyon
besinler
yararı
dövme
##ille
##lendirmek
yerlerin
geçenlerde
öpüş
adamların
leke
malesef
yollara
yatırma
##65
klini
çağlar
##ladığım
tahakkuk
dinleyen
sansür
iktisadi
##söz
baf
abart
evimde
işçilik
arkadaşlarıyla
teorisi
spe
##ов
futbolcunun
##ен
dönemini
##ımlı
bağdaş
kıran
teçh
berber
maçlarda
iftira
bakmayın
1973
i̇dlib
keyifle
yasalar
##âd
hükümlü
bizlerin
pozisyonu
gösterme
kolom
deaş
anlattığı
çoğunu
noktalara
işlemin
koruyor
sürül
doğaya
anak
noktayı
havalandırma
##serv
endonezya
##ırdı
##lr
gezisi
katarak
ettiren
yaşın
##ila
aldın
##âde
olmalarını
dolaşan
bent
tayland
smith
yapıyorsunuz
istina
sürdürmek
##eks
kaçmak
rolünü
yansıyan
mütev
gerektirdiği
çalışmasına
##idge
geliştirmeye
##ydü
portal
uzaklıktadır
öncülük
eşdeğer
girişinde
##fin
karınca
sahnesi
##cks
işimiz
##laşmanın
satılıyor
çalışıyordu
medres
çıkacaktır
takımında
literatür
ash
tamamlamış
erişimi
karşılaştırma
high
##ragon
aklını
geçmeye
bölücü
istediler
##ûn
yaşarken
hastal
enstrüman
kalktı
beklenti
çağrısında
incit
oluşturacak
lerden
cilde
periyot
kokulu
lö
etmemek
düzenley
ruj
##ous
bulvarı
merkel
vatandaşlık
##melere
i̇de
##kol
yayınlanacak
light
clo
ölecek
değerlerin
sum
dizisinde
açmaya
business
##bül
uğraşan
tuzu
##iraj
çıkmadı
geçirdim
##asyonel
bağlantıları
##cor
kanunla
büyüyor
bulacaksınız
sabri
konuşul
uyarısı
i̇malat
egz
sağlamaktır
değerleme
yaşlarında
bütçesi
eð
ekolojik
sezen
##py
teçhiz
bağlamında
ibaresi
dubai
reçet
kabulü
arpa
şehirlerde
üreticiler
hastalıklara
metn
testler
102
çiftçiler
##mesidir
abdurrahman
görerek
vizyona
tarsus
##üse
##ああああ
##88
bakıcı
##bilim
kombine
gittiğimiz
çiller
prag
dengesi
anna
yalvar
cent
siyasete
büyükelçiliği
uygulayan
nesli
sığır
##amıyoruz
kapattı
inanın
anaokulu
hasat
##sky
komplo
##törü
baca
kosgeb
kürtlerin
ölmek
istemiyoruz
ferdi
geçişi
work
felsefesi
pürüzsüz
kütüphanesi
fiyatlara
çayır
şeyle
işlenmiş
titizlikle
##amadığı
buluşacak
beğendim
buydu
altyazılı
gitmeyi
inceleyen
mumcu
koşan
yek
saatinde
fazladan
oluyorlar
##bosna
div
uyumu
belirtildiği
##laþ
ferhat
kategorisi
avrasya
tüzük
fitness
önleyici
sû
kavan
havalı
ettirmek
derneğin
yazarken
umutsuz
kesip
düzene
katılması
askerî
dekorasyonu
alıştır
yarıya
kampı
boyutları
tahminleri
günay
adada
çağın
ülkelerinden
müzikal
işadamı
zorundayım
battan
##orth
bilgisine
i̇ktisat
konusunun
çeyreğinde
seçip
fıstık
ilaçların
yaşamayı
savcısı
muamele
poly
patlıcan
tempo
üstünden
insanlığa
##tiyaz
paraları
alırım
düşünüyorsanız
izlenen
derseniz
istinaden
müslim
oğlunu
bilincinde
resulullah
tuttuğu
yapmalı
tramv
kırklareli
salonları
ihtiyar
desteklenmesi
##tici
ome
sahaf
zara
evinize
hosting
kızdır
ürüne
kadrosunda
fırtın
etkisinin
murad
kuşlar
kulağa
gübre
notlar
edilmesinin
##miye
##yonun
malatyaspor
tablos
yapsın
karşılaştığı
barzani
##lamanız
çevresine
paketleme
genişleme
zırhlı
ideoloj
brezilyalı
##ier
gerçekleştirilmesi
veliler
hobi
bozuklukları
işkenc
keder
mahm
i̇skoç
özelliklerinden
edileceği
eksper
ülkesine
elinize
yapıyordu
i̇tir
yanıma
acilen
oturmuş
çalışmalarımız
hızını
çocuğunun
kamuoyunun
otor
döl
denedim
tahran
attım
ork
sakal
yard
eleştiriler
##yici
komplik
balta
dizin
vakıflar
araçta
tüketiciler
organları
colle
ai̇hm
216
street
ordunun
tanıtmak
fetih
etmeliyiz
##layacağı
bilgilerinizi
ettiniz
cra
oluşabilecek
şahsiyet
inen
gökç
bulunduran
kıyısında
##49
sürerek
##ojen
melih
unvanı
##eyeceğini
toplanması
kırıklığı
günlerin
shar
mos
kilometrelik
muhtelif
##ozan
soyad
dre
##teb
manzarası
cansız
tahir
##bani
yakınlarına
olmalısınız
i̇fa
kazandırmak
yaşandığını
gerisinde
conn
homo
bilmeden
tesisatı
peyzaj
kayserispor
örtüsü
salgı
keman
sefa
mümkünse
öneririm
eylemleri
bakanlığına
##muyorum
aleti
mekanda
inşaatı
steve
babasını
ly
kapsar
dinley
##ern
hâlde
dekan
çalışmıyor
edersin
gelecekteki
güzellikleri
demiştim
pankart
sonunu
yollarda
maria
kızını
rakamları
parlamenter
arkeoloji
moz
sağlanmış
kardiy
kesen
kaybetmeden
kuyum
şura
bozan
kullanıcıya
firmaya
içimde
sürey
öğrenen
ücretin
varış
yararlanarak
##atlar
tertip
##mıştık
dökün
taşınabilir
beraat
faal
taşlar
anlaşıl
barda
oluştuğu
##isiyat
orospu
buradayım
klor
yapra
himay
vermeyecek
yoldaş
getirilmiştir
##doğdu
gerekti
müteakip
döneminden
##lendiğini
tahs
1930
izleyici
##livan
gübr
sektöründeki
oranın
işitme
adamlarının
eklenmiştir
diyebil
##lamaktan
biriyim
bakınız
vatandaşlarımız
bern
##lerinizle
i̇negöl
miktarının
görünümlü
hafifçe
##cımız
1977
reuters
##stir
lisansüstü
suat
büyüktür
rat
##amanız
tanımlama
kalmamış
fenerbahç
mazeret
zarfında
ardına
sers
maydan
daireler
open
sandığı
##pool
dinsel
kimisi
adaylığı
##lemeler
hotels
hücreler
malın
takımımız
dolardan
kaynar
i̇çi
##stanbul
seçmeli
ine
laptop
##labiliyor
kullanıcılarının
##aket
muhafazakar
bebeklerin
uzatma
cümleler
arg
çete
urfa
digitürk
akabinde
kısımda
vermesini
düşecek
##px
döngü
başındaki
cs
toprağın
adaylarının
hocası
atalay
##аn
müfredat
dışar
mf
durdurmak
kasted
günaydın
1915
##ague
bugünden
ömürlü
küçüm
tokyo
i̇stihbarat
davasında
##ix
175
girdik
sıh
##edikleri
##rov
ngc
fc
çelişk
hakkin
vuk
askere
mescid
şartnam
edeceksiniz
yün
gülüms
yaralanma
sürdürmektedir
##âlet
kapandı
odanın
tapınak
olmaktır
cezayir
düşündüğü
anlaşmalı
hazırladığımız
single
getirilir
kelep
iyiydi
##eliyiz
kavramlar
destekliyor
che
adaları
##еn
i̇şada
##adok
kullandığım
##meyecektir
bang
kaşıkçı
##lüğünde
düşünmeden
beach
karsi
yetkilendir
##guna
adresleri
cinayeti
emsal
göndererek
olabilmesi
girdiğini
##ydu
gerçekleştirebilirsiniz
yaparsanız
fid
illerde
suçun
ilişkiyi
kreş
##42
vurul
gereğini
sofr
maksadı
çene
kaçırma
silme
arıyorsanız
almam
yönlendirme
yanma
gözünde
guru
müşteriye
yanlısı
yürütmek
cv
içeriğ
raporlar
bilgisayarı
musul
sunarak
hepsine
faşist
gönderilmesi
almasına
dene
maydanoz
##jin
geçmesine
etrafı
mesih
##ск
fast
yakışır
##vent
öğrenmiş
öncülüğünde
yazarları
öncesinden
gönderir
değişime
kitaba
hatırlatarak
kaan
izlenmiştir
yapılanma
##oke
cüneyt
şampuan
olmamalı
sport
tanıdığım
##kanlı
##ded
135
edeceklerini
övgü
cezaevine
üzerini
doğuştan
hekimi
artmasına
sektörel
##ürek
lisanslı
diya
misafirler
deger
seçimin
etmenizi
sanatın
bencil
elbiseler
ayrılması
aileden
terbiy
hizmetlerine
sulh
bilgisayara
##uluğunu
dayanış
güvercin
prefabrik
sunuc
başımıza
çocuğunuzun
hastalara
segment
gösterin
boğazı
sabr
konteyner
kiralamak
kardeşin
üretimine
hayvans
basım
kest
listeye
komite
dinlendir
yuf
pm
geçirerek
stra
istemedim
boylu
##azırda
planını
hoparl
sağlamıştır
hukukçu
gerçekleştirecek
üstündeki
kitabının
sentetik
##ild
değerlendirildi
##unk
sayılar
tüsi̇ad
isteğe
tereyağı
fıkrasında
yürüyerek
eşini
edebilirim
fahri
mutluluğunu
##apı
makalemizde
##lamakta
tanıdığı
yasaları
ziyaretç
öldürme
##iyetle
küçücük
toplar
haberlere
sallallah
yaklaşıyor
cezaları
silahla
vermekten
okundu
kullandır
diplomat
çorlu
sınavları
üretken
köpekler
jeff
##ladıktan
kontrolünde
birazcık
##liğimizi
fırlat
sefere
iyiye
##abileceğiniz
sistematik
kapatı
modelin
sorununa
jackson
i̇thalat
standartlarına
azaltılması
departman
mahkemede
verdin
akıcı
muva
basılı
tesislerinde
taliban
yedinci
##аr
cumhurbaşkanımız
dünyasını
kollu
zarara
engelleyen
kesmek
##board
birliğine
bulamadım
oyundan
atılmış
durma
sonuçların
1976
malların
##ümden
beynin
temizlemek
oranına
sd
mahkemece
geçirdik
103
bdd
senede
sarma
doğruyu
katkıları
gt
i̇sim
değişmesi
rahatsızlığı
1923
düştüğünü
öğrenir
esenler
##ander
##latacak
kaynaklarını
binasının
hedefliyoruz
marif
serinin
kamuya
kendimiz
silahları
snap
refakat
arkadaşlarına
muhammet
akü
kopenha
##dele
bertaraf
m²
toyota
fevzi
tamamıyla
derecelendir
kaos
tutana
mobile
sük
entelek
oluşturarak
termo
okunan
yağlar
good
doğusunda
forması
bilanço
alacakları
cetvel
değilsiniz
##nis
fail
##hanesi
söyleşi
çocukken
masada
kaydederek
uygur
tutkun
anlamış
girin
sabahın
kaldırılan
kirlet
soma
kalırsa
arabaya
fazıl
hastanesine
cnn
bddk
düzeyine
##zım
avantajları
â½
louis
gebe
tuğla
solo
##organ
çıkarmış
bıça
kopenhag
tanımlar
konuşmaları
yükselme
koyacak
saçlar
dâ
mevk
##i̇yet
robin
dolusu
##eyeceği
kadromuz
##eşme
gideceğim
param
amaca
mağlu
yağışı
kafes
ayrılarak
tatbikat
ens
palet
azalması
clinton
tahsilat
fi̇
toplayıp
sporu
iline
olmayıp
kama
ödünç
okumayı
sevmek
yehova
##urdu
sonlarında
kiracı
katılımcılara
heyk
ürünlerde
bezi
sinemaya
blogger
anları
650
sızıntı
##¯â
geçirmez
news
buluşuyor
yudum
tefsir
##iydim
##açık
tatbik
izlediği
resimde
poster
bitirmek
geçmektedir
sevgilim
klavy
zeytinburnu
istir
gerekçesi
değerlere
moza
memleketi
tüketicilerin
##ars
bombalı
##dört
şela
gerçekleştiği
##lân
yapılmalı
alanlarını
##dakiler
doktorun
pon
vampir
sırr
lav
##lerimden
kazanın
örgütlerinin
kardeşinin
halih
##cağında
örgütüne
varoluş
bekleyin
sitelerinin
görünüme
dinç
##nur
ruhan
##nut
edilebilecek
##yaya
ilçesindeki
##ardo
doyum
turistlerin
paf
chris
iğdır
##til
çocuğunuz
bara
sıva
birleşme
ezan
anlaşıldı
ötv
uğurlu
ulaşıyor
açılım
obezite
damak
##ememesi
televizyonda
##stır
bayındırlık
sci
getirmektedir
artmaktadır
anlaşılması
gösterildi
madencilik
milletvekillerinin
saniy
##ric
kullanıp
kuzen
108
olmayacağı
gezeg
götüren
yalıtımı
yapacaklarını
ulaşılabilir
yarışmasında
değişmez
insanlarda
halkını
tarzında
markaları
değerlendirmeye
saygısız
batak
ilişkinin
çalışanlarına
çuval
izolasyon
tck
avşar
meğer
müşterilerimiz
konuğu
veriş
sinem
kutladı
survivor
kırtasiye
eğilimi
sahibinden
mahv
ceyhan
terfi
tutumu
mağduriyet
##ümen
optimiz
##ndan
seçil
##off
geçirmeye
##estra
106
keser
##i̇mi̇
olmadığının
mesajını
buyuk
okullara
koruyacak
kalbini
ırkçı
embr
i̇zm
istikbal
kazanılan
##biya
doya
kısmet
sağlandı
##layabiliriz
##acaksın
chica
içeriğini
##dalı
1971
desenli
motive
çözme
tesekk
romat
işçileri
çalışacağım
maraş
dokunmatik
piram
ayırmak
##asan
istes
malları
berat
bölünmüş
mig
projelere
dut
lenf
yapmadı
çıkarları
zirvede
yılbaş
işinin
gıdalar
dileğiyle
odan
çekimleri
yavaşça
düğüm
##çik
##öf
revizyon
bakü
cook
stady
kurulunca
sıkın
##şk
resmini
fred
altyapısı
alınmalıdır
temelde
##ctor
kirliliği
farkla
tül
çiçekleri
çevirdi
bazda
anıms
hayattan
bariyer
şahsın
yanar
turn
oturduğu
büyükelçi
paketleri
tezi
inanmak
takvimi
##ırt
desteklenen
##bilme
mağazası
otobüsü
karayolları
modelinin
sıralamasında
cip
##iyetinde
kriterler
şirketlere
##bie
mevz
ihaleye
güçlerini
tevfik
lale
1972
tüketicinin
artmış
abiye
geliyorum
olsalar
hanedan
##lip
##tılır
ağzını
sorumluluğunu
emrah
almanın
saltan
##ğiniz
##lerinizde
esirg
isimlerden
gidilir
pano
gerekirdi
##ilmem
fotoğrafçı
mevkiinde
ekin
##yıldız
i̇nci
isteniyor
##tığımızda
ekos
geçirir
çeviren
görmeden
sermayenin
##lemeleri
turş
jac
##alin
lüz
##meyeceği
mağlubiyet
kadı
yetecek
wood
050
cezasını
i̇çerik
##asyonları
diyorsunuz
incele
söyleyeceğim
aktarma
kapatıp
başlayabilirsiniz
kullanmadan
kararname
yumuşat
değişikliğe
imti
ismiyle
##selam
görüşler
koray
sıkıntıları
zararları
veritabanı
mahrem
taşkın
filip
rapora
demirci
hortum
planlanıyor
i̇şlemleri
deş
programlarının
##dirim
teknolojiye
##gönder
boks
müşterilerinin
kadim
sayfasına
durun
fs
##anızın
kalbin
temenn
entelektüel
##onlar
katan
kulüpler
##evleri
tartışmaları
organı
yapmasına
##ihan
soruyorum
ilerley
brown
url
borcunu
birak
yukar
yankı
etmediği
tweet
ını
açıklıyor
kurmay
getirdiğini
hayatımıza
chicago
##viz
beslenen
dediğiniz
geleceğine
küçül
bucak
cerrahisi
nispeten
çalışmalarla
çaykur
binin
halit
##eman
çokça
acık
ünifor
edebileceğiniz
üçüncüsü
halindeki
dengesini
##memize
akust
televizyonu
merm
haberini
sıradaki
ayrımı
mekanizması
aren
monitör
##ual
dosyalar
akk
masrafları
##dırlar
seve
piyade
geldiğimiz
i̇nceleme
kullanılabilecek
götürecek
konservatu
yapılandırma
necip
tencereye
adalar
kavramları
açılmıştır
unutmuş
bakılırsa
eyaletinde
çöküş
dana
game
izinsiz
araçla
toplantıları
gözetim
##ünüzün
##lenip
geliştirerek
nazlı
çıkarta
trop
aşiret
milyondan
korum
lige
temalı
i̇lkokul
araştırmanın
travma
hizmetinde
etkiledi
tutarında
konuşmalar
##leşti
duydukları
ekimi
çalışılan
mutabakat
1968
karakterini
kapadok
anlayışını
çıkararak
değiştirildi
operasyonlar
gaziantepspor
rizespor
uzaklık
çevrili
darp
vizesi
550
bulunup
tif
mücadelesini
mutfakta
bakı
vural
içeriye
inana
hedeflerine
##vana
kuruluşunun
yürümek
sistemlerinde
izleyic
##cılığın
muhabirine
huzuru
email
bakmaya
kırılma
görü
takımlarından
menajer
kurup
yemekten
kavra
evinizin
1967
nasa
hastalığının
imkânsız
kızart
##ä±r
##lular
antlaşması
izlerini
çıt
kapıya
patlat
okuyarak
saldırıyı
##risti
nek
kebap
##prü
mücadelesinde
izliyorsunuz
tesisin
güzelce
sebepleri
müstakil
şablon
i̇klim
görünmez
envan
##ğ
kafkasya
gelmesine
i̇sten
faaliyette
mecliste
dedikleri
104
solda
makaleler
ağacın
mira
desem
pav
senatör
zehra
dönüşür
müdürlüğünün
şansımız
demiştir
listem
bittiğinde
düşündüğünü
loto
haklarında
devral
anlamıyorum
bilinmez
yolculuğa
lisansı
kaydedilen
kayısı
arzusu
düşünüyorsunuz
anıtı
çaliş
isterken
şiddetin
dayanır
sentez
vurgulandı
ızgara
kapatılması
sektördeki
akşamları
gazetenin
##tihat
saran
matbaa
##özü
söyleyip
aralarındaki
##âtı
##itleri
dayak
lys
##olan
berk
hayatınızda
bölgesinden
sait
##labileceği
kampüs
sivasspor
çocuğum
ergenlik
##tain
iletişimi
gösterilmiştir
tutuklanan
artırır
jane
paraz
##i̇si̇
fikrin
numune
riskleri
ismin
koydum
sökü
sözcüğ
yaşamına
hüsnü
olsaydım
##zya
way
eşyaların
gününden
özgürce
anlaşmaz
fethi
diğerine
bahseder
sout
was
olasılık
##şama
büyükçekmece
kürk
kaynaş
suni
önemsiz
##out
tükür
düzenlenir
askerlerinin
yeterlik
yenilikler
##100
merkezinden
##dok
şartlara
geçtim
karşılaşıyor
manip
saklan
##mıyoruz
alıyorlar
boston
bulunuyordu
duyduk
bulduğunu
başkanın
##oğlunun
kimileri
aşamasına
##labilen
harcamaları
hayatımızın
yöneticilerinin
##cad
nüfuz
##casına
tac
seçti
müsteşarı
çevrede
azaltı
yanıtlayan
sayfalar
erecek
disp
gösterileri
cit
isteğ
ayları
yapabileceği
##ikar
çaldı
edilmeye
ahlâk
taşıdığını
havayolları
yapý
eşek
işyerinde
soft
tanesini
duyduğumuz
taar
hafiflet
aşağıdakilerden
##üzyon
nuh
onurlu
maddeye
yükümlüdür
aradaki
##liliğinin
##oooo
çifti
içk
atılması
bitiyor
açılışını
artırma
bulgur
personele
aklın
##okim
futbolcuların
adları
otog
ettiğin
senato
hektar
hammadde
amb
##tığından
şuur
ilçelerinde
çeç
dersim
tertemiz
basının
evinden
design
deterj
##chen
arkeolojik
parçalı
mahmud
çıktıktan
alınmasına
sör
##çok
pişirme
##faş
saglik
vaad
##deli
##jo
hoparlör
i̇ha
##üyük
isteyebilir
aşka
numarasının
yasaya
geleneği
gerekirken
geçmesini
sanayii
vergiler
pdy
serüven
aradığı
zel
##üd
##ilebilmesi
hepinize
kuruy
içsel
etmelidir
##birlik
i̇şletmec
kapadokya
aklımda
i̇rfan
ağaçları
food
aidat
bitecek
mürekkep
xxx
##i̇şti̇
##cum
liz
gelişmesine
karşılaştı
diyorsanız
alerjik
##çiç
çolak
koman
çekerken
kuveyt
karşılaşılan
soruna
yapılıp
##yy
arkadaşlarını
söyledikleri
adayın
pahasına
ekranlarında
cenevre
karakterler
olabilirsin
##43
umursa
müsteşarlığı
küme
##siklop
##ology
yolundaki
ipucu
inn
bünyesindeki
arkan
huzurunda
getirebilir
bindir
ömrünü
yaþ
spora
##ıyorsunuz
anlatırken
türüdür
terbiye
##ison
tekerlek
ayvalık
sıyr
etrafındaki
avukatlık
kuvveti
vefa
çığlık
kararsız
##sizliği
safran
adındaki
sut
atılır
senetleri
isterler
şarkının
kuma
##düğüm
personelinin
tags
illa
davranışı
##atlı
çalıştay
##bik
kayıtsız
osmangazi
##emon
vaziyette
##bın
oranlarının
gözyaşı
bildiğini
nijer
keh
genişliği
dilen
süreler
uçakla
##vanya
hesaplar
karşılandı
gm
##şit
izleyin
mânâ
koyul
ilişkilerde
dizüstü
##kadar
hizmetlerinde
koşullarını
üniversitesinde
alışverişi
wes
sivr
azaldı
jenn
arayanlar
nedenler
üyeliğine
bağlanan
huzursuz
1963
yetenekleri
seren
alışık
##liliğin
kati
birliğinin
halif
gücüyle
uçurum
produ
box
ped
bahsi
kurbanı
fetullah
fis
hastanesinde
yöneticilerin
sezona
arkadaşını
##mi̇
değiştirerek
dinî
veritaban
enerjinin
hazırladık
minnettar
plaz
##89
uzlaş
yazışma
kararların
johnson
##osa
##rey
vajin
bornova
sakız
mala
rant
içecekler
ihtilaf
hareketinin
bankaları
şenlik
109
karşılanması
##dö
dündar
sahtek
uzunca
von
edebi
izlenim
ulaşın
kitapların
yenilenen
bulunul
türkistan
büyüleyici
komiser
gerçekleştirdik
sanatkar
milletimiz
nurettin
reddetti
jor
varsayı
isteklerini
eğitimden
katacak
dilimi
sınıfının
hakik
##cüsü
##mızı
##kini
sırayı
lacivertli
şuanda
burjuva
kalemi
sözün
çalışanlara
başlanmıştır
##ronun
dicle
##jk
folk
imzası
1961
abonelik
eu
komuta
tum
iraklı
gaziosman
sonuçlandı
uyardı
çürük
kasıt
asi
turkish
ever
gerçekler
fiyatının
faaliyetlerin
kuruluşun
dayanıyor
raporuna
kursiyer
demeden
başlıyoruz
tarihlerde
aptalca
borçları
yürürken
bırakılması
##ville
çiftin
iplik
##ımla
ysk
metaboliz
ayrıntıları
başarının
rag
##mayacağız
püf
rumeli
i̇zlediğiniz
planlarını
hastaneler
varis
pip
oyunlarını
eklenir
yönünü
dönerek
siyasetçi
##abilme
sayfanın
kurtlar
##bullah
##izle
sormuş
sunmuş
prostat
live
galerisi
beklentilerini
gelinen
bitince
bazi
uğradığı
düzlem
özgeç
toplantılar
ulaşarak
kurulunda
##basyon
kayıtlar
kont
kampüsü
birbiri
##gic
yarısından
şeb
##larýn
erbil
sadr
kadarı
yatkın
ds
i̇nter
##üsünden
yazıya
##ingen
##opat
ailesiyle
biliş
krediler
pus
bombar
##gie
kovan
##ılıyorum
##64
mıyım
i̇nsanları
##uh
servise
hut
kaybede
tamer
bildik
caminin
küçükçekmece
anam
tamamlayarak
teknolojiler
edinme
çeşitlilik
köşede
yönetmelikte
karşıladı
kamyonet
kaldırıp
tabloda
sprey
williams
##meyip
eşitliği
enflasyonun
topraklarında
söylemesi
yapımına
önlen
##irin
birçoğ
ortakları
##idan
i̇skenderun
kişidir
sonraları
giderse
kelimesinin
oluşturmaya
namazını
hemşer
sünni
değişmektedir
dönüşümü
siyon
takımdan
malzemenin
badana
finali
artıran
öngörül
selül
topraklar
tarafının
hande
kompleks
gn
kırp
çiftler
içers
sayılabilir
sunduğumuz
##ladimir
israf
sid
hitab
titan
etmiyorum
bulunmaz
yönetmek
uh
edildiğinde
dağınık
risale
düşürül
blair
ibraz
incelemeye
önümüzde
nazi
fotokop
yargılanan
##raş
krallığı
dolaşıyor
albümleri
bedelinin
düzenlenmiştir
ring
##ors
got
oluna
imtiyaz
1969
takiben
vedat
hollandalı
seçilir
çalıştıkları
işlediği
içlerinde
##selen
hissetmek
güneşli
nihayetinde
stal
##omuz
sitelerine
çelenk
kaynağından
anlayışla
##riye
demeye
nostal
peh
##miştik
milyonu
kadeh
yinede
sebeplerden
##lispor
tasvir
gelmesiyle
şehitler
##inasyon
elen
aynısını
mans
misali
salim
##şah
kalmasına
yırt
bdp
yöre
kötüsü
gezilecek
ünvan
##oda
atabilirsiniz
yengeç
sunulmuştur
uyuma
gerçektir
kaşıntı
geceye
jar
yaşatmak
kaliteyi
aydin
yetmiyor
mehdi
1919
tümünü
peyniri
bulabileceğiniz
tohumu
anayasası
kullanılamaz
naci
hazırız
eleştiren
serum
parkur
electr
muhafız
i̇zmi̇r
##eria
konsantrasyon
planın
şekilleri
cehenneme
alfab
batısında
temsilci
sineması
ötesine
##ydın
hazreti
apk
kavşak
i̇lker
çalar
korkuyorum
##yanı
ultrason
boyle
oturur
görüşmeye
1965
dine
göb
yaratacak
##niz
gerçeğini
##old
altının
proto
sevgiyle
nizam
kademeli
karşılıyor
ağaçlar
cıv
arıcı
binbaşı
simit
götürüldü
nötr
rod
uyuyor
premium
geyik
ederdi
mikrofon
izleyerek
finanse
rose
sevenler
gazeteler
kurallarını
4k
##ılmakta
sistemli
modası
teröristlerin
aktüel
##ã¯â
enerjiyi
timur
##kesi
defned
dela
bahçeş
cezai
##elenen
beyazlılar
##lahi
sözlerle
gölcük
mayın
kuşu
seneye
sorumlulukları
korunmak
##tansiyon
kelimenin
üstlenen
dedir
yapmadım
##anne
##eliğe
sınavda
##otel
sevinc
büyümenin
fırsatını
##uyo
yaşadığınız
ortamın
##fo
ekler
block
döşen
haftaki
korkarım
deneysel
kalorifer
sınıflar
neşe
kadınlarla
tarihindeki
##row
görmeyi
edemiyor
##57
uykuya
kabartma
setimes
##yana
türüne
profili
fiyatlarında
dedektiflik
laiklik
helen
söylent
öngörülüyor
yetersizliği
hazırlar
aranızda
hakimiyet
sloven
almıştım
ilçenin
ödemiş
##lıklara
zorluklar
epilasyon
nelere
kâfir
raporun
düzenlemeye
ayrıştır
##brit
bozma
##ool
ülkücü
##liliğine
piyango
primi
meyveler
özver
efsanevi
goz
radar
diyetisyen
i̇zleme
kısımları
##anıza
kabuğu
hanımefendi
tarkan
tamamına
##rome
kavanoz
i̇ncil
vez
adliyeye
karşılıksız
vokal
sabırlı
golcü
projesine
tüi̇k
işadam
canan
olasılıkla
söyleyebilir
stadyumu
basını
katılmaya
ekosistem
şti
ansiklop
haml
hissedecek
çatışmalar
christi
görüyorsunuz
kahkaha
arttıkça
içerikleri
yağışlı
karabiber
##yayı
dolmuş
değerlerine
suriyel
tıraş
i̇lgin
bulunabilirsiniz
##hası
gösteriliyor
##lemenin
alınmak
dönemden
ürünlerden
talebini
üzerlerine
gevş
faydalanmak
ailelerine
##düklerini
##rari
zım
##hil
##sea
partileri
guar
kararında
##park
secde
restore
klo
bilimin
sezar
birgün
book
akustik
nezaket
vladimir
lans
hijyenik
slay
bomb
##lanmayı
ceren
wall
haftas
bulunmaması
bildirilen
duvarları
ilkel
bulgular
birçoğu
##ader
istiyorsa
veh
makineler
unuttur
gökyüzü
kariyeri
uymayan
pep
mermi
##sterdam
çıkabilecek
kalanlar
belirtirken
virüsü
##canın
mensuplarına
aşaması
anlamadım
verebilmek
dökülen
sina
hesaplanan
beldesi
yaptığımı
telefona
##urnal
firmalardan
yaprakları
eziyet
kurar
doð
tesisler
kullanıldığını
liver
dibine
##damı
##ımar
eleştirel
tmsf
yakalaya
oluşmasına
turlar
yansıması
yıkıcı
doküm
mesa
zül
bulduğum
bütünlüğü
eliz
doğran
romalı
babasına
who
sergile
kadınlardan
##ikan
geçirecek
esasen
hayalini
hoşnut
kesildi
etli
merkezindeki
##ра
sayfasından
sönmez
araçlarını
görgü
##medikçe
idaresi
kaldırdı
edilirse
yerleştirilen
araçlara
gerçekleşmiştir
öder
taşra
talebin
odalarında
i̇lçemiz
ihtiyacının
saygıyla
kulaklık
hakkinda
projelerini
olym
görülmeye
##mamıştır
tabiri
ego
okuduğu
##bola
ikramiye
kayboldu
tarafını
##bes
olmalısın
hiyer
bahsetti
##ente
gösterip
iyileştirme
meclise
##resif
##etooth
mercan
##süel
hızıyla
soyunma
atletizm
kesik
##opik
nark
olayını
##yid
check
gazetelerde
zamanları
büyüdü
##station
kurumlarına
bulundular
##ucak
rakib
görevlilerinin
ayrımcılık
kaçar
seyah
mecra
sayfamızda
öneririz
ödeyecek
inovasyon
akarsu
astım
amsterdam
bilmeniz
süreliğine
çalışıyorsun
##tali
sed
sürdüğünü
uzaya
edecekler
lezbiy
ilişkisini
hatırlar
getirdiler
sınırında
hükmet
marks
1964
insa
geldikten
##iker
##ırsanız
düzeltmek
##urumda
tıkanıklık
##üyorum
kısıtlama
dönümü
dus
çözmeye
elmalı
değiştirecek
havayı
söylendi
##83
giydiği
seyhan
mafya
##enta
kasımpaşa
kılıyor
işletmenin
edilme
##madığım
geçirip
yaygınlaş
bahsettiğim
gösterilmesi
teğmen
##beyaz
sokağı
kesilmiş
ihlali
beklediğini
hidrojen
cos
##wei
##ganın
##emediğini
olabiliriz
cesed
ekiplerince
bendi
erik
üslup
işaretleri
hua
biriken
indirebilirsiniz
kaybettik
sitenizin
eşine
doğruluk
##rettin
bluetooth
hazar
##nalı
yerdir
karpuz
1200
mekanlar
##şağı
ücretler
##yazı
altta
duyunca
şubeleri
üniversitelerde
##latıyor
filmlerin
engelley
##strük
##ılda
sonuçlanan
ağar
giysi
##bire
başarmış
long
##luğundan
hareketlilik
##ross
1080
ronal
brit
efe
kalifor
uygulamalarını
becerilerini
yarayan
yapmayan
##i̇b
beyt
hadise
temini
zorlama
öğrencilerle
i̇şyeri
zaaf
##mazdı
##amdan
hayatımızda
text
uyuya
işbu
##gy
yuz
gösterim
bale
gitmez
bilgisayarlar
##back
statüsü
ediyordum
raporunu
1945
##izden
##101
kulübe
boşluğu
şebeke
üretmeye
demesi
sonun
kıvır
girmeyi
eras
çörek
ürünlerine
işinizi
şekline
demiryol
fikirlerini
##çıl
hack
umurumda
yabancılar
155
##oi
gayreti
##mamızın
watch
ekibine
estetiği
vermemek
yendi
sorunlarla
merkezlerinden
evime
kokusunu
bitmez
sömürg
##cesine
ında
verilmesine
tosun
daum
gönülden
yönetilen
tufan
ağaçların
##unay
horoz
flo
düşürmek
üretilmektedir
yayımladı
aynıdır
hazırlandı
lütf
rekoru
hizbullah
konur
##ett
##dt
##badem
vektör
##err
formülü
potas
yapanların
patronu
platformda
gösterilir
konsep
unutmamak
mezarlığı
başkanlığının
ipuçları
büyümüş
gul
kağıtları
şeydi
komed
##hit
joseph
seyreden
yapacaksın
takıl
muhtarı
öksüz
i̇nf
bilirkişi
baro
teröre
i̇lginç
diriliş
kariyerine
önerilir
akışını
kuruluşlara
nöbetçi
çıkacağını
hamd
içeriğinde
konumlandır
birimler
incelendiğinde
boğul
çarşaf
fasulye
bilgisayarın
fenomen
##lisans
sistemle
okunması
kac
hattının
tesbit
gördünüz
hadd
mevzuatı
ekmeği
bakarsanız
dezen
gil
yapılmakta
çıkmıyor
tarafindan
hepat
carl
##rick
metodu
sandv
festivalin
izini
hakiki
kararda
orkestra
binaları
sapık
tutsak
##tica
tebliği
katlan
yetmiş
markasının
shak
üyenin
kalitesinin
doğruya
gazetecinin
günlerini
bitkileri
kuruyor
aciz
kaplum
##layıcısı
metin2
adapte
##cılara
##eter
telefonunu
mevsimi
piyasalar
demo
körfezi
cahit
##ağının
seçtiğiniz
premier
hir
suz
dilleri
standartlara
sevim
konuşmasının
##gıç
havz
konulması
topuk
başladıktan
faktörü
##cs
örtülü
##icek
varlıkları
alabileceğiniz
gereklilik
kirpik
tour
ille
##atar
sorusunun
sitem
yaa
konuldu
sloganıyla
tedavinin
özelliklerinin
çoğalt
##tebilirsiniz
nakled
##iyal
akşama
sela
yapılmasının
olsak
çalışmalarıyla
sirket
verenler
dayandır
başlatan
##şeti
edebiliyor
başınıza
##ydık
##stığı
##labileceğini
benzerlik
##şin
##lm
kontak
sabi
kaçmaya
karasu
konumunu
anlatacağım
kırma
müşterilere
şeriat
katkılar
etüt
##çilerinin
ağrıları
kampanyaya
##lanmasıyla
artırarak
zenginleştir
çırak
anlaşılmaktadır
ekiplerinden
##dn
iddialar
##latif
müslümanlara
hesabınıza
yararlanma
planlaması
pekmez
must
selan
hoşgörü
dedin
modülü
armut
elimi
orkestrası
hastalığına
spir
dayanı
##uter
##sefi
yaştan
##dî
barosu
ivme
bombardı
uçar
turistler
kırdı
duyurusunda
tebli
tefek
uğray
sağlıyoruz
##ute
kürek
doğada
##lanmanın
hedefine
sizlerden
rengar
çevredeki
pişmanlık
hazırda
şöval
madeni
hisarcık
bulunanlar
üstad
##amızdaki
aktiviteler
yakar
yapıldıktan
biskü
edebilirler
##larina
##bisi
afa
sanatçıların
katılıyorum
umuyorum
direnci
geldikleri
toplanır
kabine
##lä±
kültürün
materyaller
mezunları
yığ
yaptınız
politikasının
boyacı
teps
bilez
yerleşen
görünse
artışın
doğası
araçlarla
##duğunuzda
inceler
optim
sistemlerini
hs
carol
gökçek
yasaktır
vermeniz
varil
kaliforn
merkezini
sunmayı
marifet
cennete
spk
suçlarla
##rent
annesini
belgenin
kusma
yakını
şii
diğerlerinden
rahatlığı
kalbim
mekanları
birincilik
##itch
bahçeşehir
lot
hürmet
rusça
magnez
i̇lahiyat
akdağ
süreyya
toros
boyan
gibis
esasına
raporlama
ilçesinin
express
omega
ortodoks
günlere
alınca
takın
çekmeyi
bazılarını
kişiliği
siyasî
denizlispor
futbolcusu
temsilcilerinin
##lasa
güçlendirmek
programlarını
çit
çürüm
durumdaki
indirip
asılı
yaşamaktadır
yapacaktır
portr
##ımdaki
eylemler
gi̇r
renklerin
numun
kanununa
bide
tahk
yıldızları
##meksizin
birliğin
düşünülüyor
kauç
atm
etmesinin
blue
çeyrekte
##hip
##kins
plajı
bankalara
verdiğin
edinmiş
kibir
yapabiliyor
yukarıya
bütünlük
yanlışlıkla
##emezler
mukaddes
faci
ilişkilerinde
##bad
run
arsen
kutluyorum
sitemizi
yeteneklerini
sürdürdüğü
team
müşrik
657
##ölç
işbirlik
dergisinin
gideceğiz
katmak
i̇kisi
traj
olg
kontrat
##dıklarında
dönemler
besleme
öksürük
sti
arafat
çocuklarımıza
hatırlamıyorum
ölmeden
gülüş
çeşitliliği
sý
hok
liverpool
penta
arkadaşımın
fahiş
dm
kesti
günlerce
senelik
şarkısını
olmayanlar
sunmaktayız
değiştirilmiştir
antak
sütlü
##ulos
ölümden
getiril
ilmi
##mışım
i̇şveren
gündeminde
belirleyecek
abs
bilmesi
müzikleri
hi̇z
bölümlerinde
baby
çalışmasının
ödüller
şuna
fantezi
atlama
oryan
belediyesinin
oyunların
dağlar
ithalatı
##yi̇
beyazıt
müftü
yeşilyurt
yiyip
##95
yapti
ikiniz
sesin
##abilirsin
yarayacak
odam
topbaş
kılar
liler
vücudum
media
##85
gruptan
heykeli
##asinda
ögren
yatağı
kahro
ölümünün
gruplara
çalıştığımız
teftiş
çırpın
seçeneklerini
##ýmýz
fotoğraflarla
hendek
arabalar
olmamıştır
ağızdan
##asý
sondaj
##ceğiz
rağbet
kurulun
görmem
rengarenk
yapısında
değerlendirmede
ekliyor
sürdürülen
etkilidir
politikasını
i̇spanyolca
savaşında
isimlendir
eyaleti
sitesindeki
nm
ürünlerinde
değişimler
lokasyon
vezir
istemiyle
##lığımızı
malezya
arkadaslar
skoru
kullandığını
söylenir
bitkilerin
derslerin
##vuru
##izik
halis
görüşül
albümün
##uu
##çesi
isp
girişiminin
pamukkale
sabahları
yapmakla
fetva
duruşmada
kadarki
##üğün
##cess
anlayabil
projelerinin
büyülü
##tirim
diziler
tus
bağlanır
tig
yaşaması
talihsiz
değerlendirilir
menüsü
ate
##pol
##i̇ci̇
eserlerini
ea
soktu
odamız
sistemlerin
paraş
java
kokan
tramvay
inisiyat
sokaklar
rakamı
söğ
pasifik
hazırlayıp
harfi
getirmeyi
##ürler
##dent
bedi
##gım
kla
pudra
terket
taşınma
bedelli
kapasitesine
oc
kalacaktır
buca
edenlere
skorla
##jit
töv
edilmemesi
yerdeki
rulo
kitapçı
anlaşmazlık
hazırlıklı
istediğinizi
yapmayın
eric
talepler
etrafa
dalgalanma
mi̇
##heast
kurtardı
bölgelerine
yaparsa
işlemine
inceley
açıldığı
buluyorum
açıklamayı
yetkileri
university
açılışında
teklifini
scott
sayfaya
köşeye
düşünürsek
##hay
avans
sebebini
##iss
##çiye
anayasanın
##gını
yapıyı
ilerde
pazarına
durdurma
konsolosluk
özgeçmiş
##kot
satışını
##gina
kavramını
ocakları
gürült
muhalefetin
##sünün
iyon
yönetimler
vadi
müesses
mercim
alışkanlığı
yanımızda
metaf
zim
katılacağı
olunması
imzalandı
aşkım
yaşamında
oynamış
##tesi
belediyemiz
##labilirsiniz
##li̇m
dönemdeki
yükselmesi
belirtisi
oğulları
istemesi
örtüş
çağında
bakanları
felsefi
çocukla
##lerimin
girişimciler
##küler
yaşanabilir
bilinmesi
yeğen
halihazırda
ettiğinde
parçasıdır
mağazaları
##esif
##imizdir
gidebilir
torunu
düşünürken
geldiğince
bildirmek
yurtdışından
##uge
beko
yenen
telgraf
hatırlatmak
sezgin
file
seçilmesi
uygulanmasına
ortamının
üretme
namık
buluşması
hall
ebedi
durağı
edinen
standardı
otellerde
üretilmiştir
ishal
turbo
oluşturabilirsiniz
bulunurken
##digim
olmama
ayran
engelleri
dönmez
krize
hâle
sevkiyat
##âf
okuyorum
sertifikalı
cevdet
##erik
yüzeyi
ayaz
nitelikleri
fethullah
jak
ağlar
birazdan
vurguluyor
i̇stek
##ayız
adaleti
hurma
açtım
içim
nişanlı
sahipliğinde
kokteyl
yıprat
##93
ihalesi
##mamaktadır
i̇sterseniz
ýn
verirseniz
##iha
##amadım
##lımlı
##emm
yazmayı
başkonsolos
teknisyen
liseli
lozan
ferrari
yener
##sanı
etse
yalnızlık
southeast
olmalıyız
taşındı
başlıklar
sınırlar
230
non
##67
türünün
değildim
videoda
görürüz
jeneratör
evlere
gmail
sql
##но
diller
içinse
sif
modi
hitit
birincil
eko
dergisinde
kurtarmaya
şaban
saldırıların
cihat
hemşehr
burdan
seçer
##leşmenin
tartışmalı
ören
venez
fosil
deneyimini
deve
white
atlı
korkak
alımları
piyasadaki
vapur
gap
kazancı
şartlarında
##larinin
devrede
muhabiri
çıkmayı
haftasonu
davaya
##mağ
bayilik
ülkelerdeki
atıştır
mario
hareketlerini
magnezyum
##vari
değerine
bakarken
dolan
bozulması
sayının
usulsüz
turgay
maliyetli
kip
##şir
etmelerini
öğrencilerimize
##cit
düzenliyor
mahvet
uymak
çözülmesi
##ition
attır
suyunun
mürette
çekmeköy
derbi
gülümsem
bahsedece
açılma
içerisinden
fiyatına
bandırma
##ğimiz
esaslı
süreyi
zab
çi̇
trafikte
bütünüyle
kitaplarını
i̇tfaiye
değişimin
hipertansiyon
dünyan
durumla
trom
##ûmet
yorucu
hi̇zmet
fiyatların
benims
oynayacağı
yansıdı
otomobili
mimarisi
paylaşılan
mıyız
dahaki
##istlerin
açıklamasına
örgütlen
beklediklerini
gore
dinlet
sağlanıyor
enteresan
araştırmalara
bahsediyor
anlayışıyla
##m2
küçült
##hap
bildirilir
##ido
##haz
övün
singapur
lafı
ürünlerimiz
yürütülmesi
defasında
ryan
odağı
tehdidi
dikkatimi
yaptırılan
##ılacaktır
dink
haiz
meta
toplumunun
##ülürken
akçak
başh
dişli
eyleme
hayatından
bilmediği
i̇şaret
siteden
mithat
kaynaklarından
american
kolaylaştırmak
sosyoloji
olmalarına
alınmaktadır
becerisi
öğr
operasyonun
kauçuk
gözlerin
yugoslavya
dönerken
karıştı
çalışırlar
riskler
kontrolleri
istemektedir
haçlı
alıyordu
sevgisini
##raph
yörüng
zammı
##antum
doğar
wr
yaptıran
califor
seçtiği
i̇ğ
bostancı
kaptanı
##abeth
varsayılan
halkımız
yapmaktayız
tanıttı
##ilim
diyeti
azap
##bby
sedef
karabağ
politikasına
pili
soldan
varlığına
ilkbahar
katliamı
lokomo
##iyeyi
erasmus
onaylanmış
yelek
üyelerini
##ustur
##ical
hepimizi
yapılmaz
okulunda
kaliforniya
##chan
dönüşüyor
hadî
başvurusunda
sarah
işlemlerinizi
rastlan
##gum
değiştirmeye
asli
peç
yetkililerinin
cafer
ticaretin
galib
##yoz
görünt
dolandırıcılık
tampon
chel
kaymakamımız
milliyetçilik
ee
bayar
muhareb
yk
melan
baki
hesaplanır
yakin
kaynaklara
özk
lezzeti
118
sarsın
eğitici
döndüm
çeçen
dikdört
sokul
bağlamak
uçağa
açıklanacak
##esiydi
topkapı
yaşları
evlendi
düþ
zeybek
##cat
##acaklarını
hocamız
gürkan
baylar
320
##terapi
tamamladıktan
##elerdir
kullanıyoruz
bayraklı
gelmem
pem
yakasında
teori
kuruluşlarına
aqu
evim
heyecanlandır
lâzım
yapısıyla
acısı
sıy
ersin
ödenir
sessizce
şevket
fiyatını
sarp
donatılmış
ailesinden
seferi
hocanın
memnunum
dedem
piksel
chrome
yükseliyor
tarzını
işbirliğiyle
öteye
bilgisayarınıza
unakı
##ides
style
kevin
maçlarında
önderliğinde
##end
anh
##cağa
fiyatlarına
kayıtlarını
dh
##lot
salgın
selanik
oranlarını
firav
1966
vitrin
vuruşunda
programlarında
etkinliğin
payını
bakanlığınca
kiraya
bonserv
unakıtan
oluyorsunuz
yakınlarındaki
mers
player
navig
farsça
üstünü
unvanını
hanımlar
teröristler
girince
yabancıların
i̇ngilizler
açıklamıştı
ünün
arayışı
mecid
merkezin
bisik
htc
ox
mouse
royal
potasyum
simülasyon
##latın
##ins
##ulmuştu
bulunuyoruz
sahadan
##lamayacağını
##bilecekleri
yazıldı
eğitiminin
gurup
hayvanın
ax
yapıldığında
kaleye
##lanta
üçü
hususta
girişimleri
wolf
uygulanmaktadır
ladin
kasır
iktisat
diyeceğim
antr
limited
verilmelidir
145
##bayla
yarısına
##aşa
dns
yiyor
öðren
dostları
venüs
türünde
eleştirmen
şunlar
##âs
tutucu
i̇şkur
##ilebilen
muammer
gözlerinin
berrak
alpar
milas
tuttuğ
yatılı
parçalara
tanrının
frankfurt
resort
##ağaç
##ilmiyor
nerdeyse
hükûmet
beyni
önlisans
hakkımda
##bileceksiniz
tugay
1940
orantılı
edileceğini
kampanyalar
hipo
sitelere
fü
lenin
alç
fla
yazımı
miami
erkeğe
takımların
sözleşmesinin
almaktan
pekin
##esifik
büyücü
köylüler
mahsur
##gane
##lonun
davrana
açıcı
turkiye
değiştirir
tedarikçiler
##cınız
kadınım
başlarda
tümüne
yüzölç
ayrıcalıklı
distrib
endüstrisi
turhan
bebeğinizin
bozdağ
etkiye
yorumunu
jimmy
çiftliği
bularak
yangını
ücretini
sırayla
huawei
hareketsiz
teklifler
meşin
ciro
gittiğim
aids
##pro
ari
##üzel
enkaz
desteklen
formda
kaderi
##ıı
görevinde
ulaşmıştır
caner
hicret
unun
##ahmet
melekler
şoförü
sebepler
kahrolası
müzakerelerin
durul
yediği
edilmekte
teslimi
##elem
varlığının
##urucu
sayfayı
kesimin
yapabilirler
notebook
sağır
fuh
niteliğindeki
##akt
katılabilir
demi̇r
##zel
arayabilirsiniz
uyguluyor
##61
kumandan
antakya
koşullarının
sağladığını
gibiler
alek
çalıyor
bulunuldu
apaçık
yemeye
sivilce
sitelerin
sözcüğü
tamamlama
rekabetçi
##ance
andır
amacını
##uka
burnu
##oshop
diğerlerine
öncek
hilal
muhak
cela
##lacağına
sürüp
olacağından
erkeklerle
365
değerlendirmelerde
##mond
karagöz
##iza
mercek
selen
kaybetmek
##berry
meydanında
bilinmiyor
maraton
derinlemesine
uv
güneşi
ibarettir
haw
kartlar
chi
##mahal
sürdürül
oyunculara
##uli
halleri
köyleri
yörük
gidem
puandan
bağlantılar
belkide
##veri
ayrılıyor
gösterime
ortaçağ
aracının
vergilendir
kadi
etmemiş
engelleme
kullanılmasını
pp
uygulamalarının
kısık
bildirir
##41
özbekistan
engellen
savur
##dev
belirttiği
elçi
117
xbox
göstergesidir
ruhsatı
i̇slamcı
##ğımız
kişide
anladığım
adapazarı
kanunlar
beğenilen
destekleri
gözüne
haciz
karıştırarak
havalarda
öss
dizileri
hizmetinizde
aşçı
kaymakamlık
##liliğe
kenarına
fuarda
nal
anlattık
bahçede
kırıcı
tablolar
giysiler
kelimelerin
halkların
ruhun
kuvvetlerinin
sınıfın
hattında
defne
borçlarını
santrali
##asta
çinko
reklamlar
eşyalarınızı
sevme
uran
inanamıyorum
gerçekleştirilir
bölme
hücrelerin
mallar
katsay
şeylerle
##layacaktır
ormanlık
adlandırılır
nane
210
##i̇ne
scrip
yolların
nadiren
bitiren
anlatarak
dükkanı
##bour
rüştü
index
sorunlardan
i̇stediğiniz
##dili
süb
avukatları
yükünü
yaşamının
iin
yükseltmek
ayırma
tipleri
tahri
##heimer
teşhisi
taran
bandı
tecrübeler
leb
şanzım
acısını
çoğul
eleştirdi
çözer
kodlama
yarının
girmesini
olursan
havalandır
##gama
taarruz
##lebilir
##yasını
hocalar
karanlıkta
kırılgan
rahmi
sürmek
bombası
##emeyeceğim
ilçeye
önlemlerin
tesir
düşündüğümüz
vilayet
##ping
yönerg
bist
çevirmek
neticede
şehvet
brad
yemeğinde
yöntemlerini
##çi̇
kredileri
stant
düşerek
bn
denizden
yüklem
operasyonel
##este
kron
yurda
transit
##lünün
durdurul
kaynağını
silahların
hayvanlara
şahıslar
dernekleri
zü
##isim
sitelerinden
olamayacak
kararlarını
doldurarak
vermeyin
karanfil
kesilir
örneğini
bloğ
şöyledir
şirketine
arttırır
femin
hazırlığı
müeb
night
ettiğine
yapılmamış
sokaklarında
##mor
nom
çekmektedir
patlaması
motorları
slovak
kase
dramatik
oktar
olaylardan
psikiyatri
katkılarıyla
sağlamayı
küvet
##92
detaylarını
kapatılan
techn
##gro
##obe
bağlayıcı
yolculuğuna
iskelet
pn
kesit
adımda
##ced
konan
##laştırmak
##selâm
resûlullah
alçı
anlaşmayı
##etti
cezalar
konsantre
pilotu
kulis
##git
yolundan
she
##ilin
i̇stasyonu
savaşan
anlarda
aöf
çalis
##ents
##zem
kültürüne
kolektif
olmanızı
spesifik
digital
sayıl
piyasanın
yaşamda
kesinleş
düşündü
##vit
karakterleri
kavak
plaza
hedeflere
kapısına
yanak
bora
ruslar
##98
engelle
perişan
operasyonları
##duğumu
araçlarda
hayatları
##amam
biyo
##esiniz
depremin
şekliyle
ayas
law
istemediğini
kapsül
young
si̇stem
karşılaşmayı
eşref
irk
melo
imkanlar
hizmetlerimiz
kodunu
azalta
pig
dururken
##mamalı
izlenmesi
yenilgi
kontrolden
gerektiğinin
yapılamaz
eee
manada
papat
verdikten
tebligat
ufa
rastlanan
durması
rejiminin
##mettin
vatandaşa
linkleri
sandviç
##ple
kazık
py
memurlar
bastı
##landıktan
hayatınızı
savunmak
örgütlenme
makas
duygusunu
başlata
teklifleri
formasyon
yaratılan
farkını
aktarım
kavramının
gezmek
boyutlarda
kolunu
arabaları
hastanenin
##abilecekleri
edersen
kurmayı
dolabı
bilinçsiz
saatin
odalarda
##emeden
##pal
tartışmalara
kesintisi
takıntı
konularını
demokrasiye
##anıma
incelemeler
teşekkül
keresinde
##side
porselen
neo
karşımızda
kayıtlara
kurtarıcı
sıradışı
kubb
toplayarak
##card
uygulamasında
##miy
sunulur
kediler
##atay
tofaş
büyüklükte
karataş
telkin
çizgisi
girdikten
yeminli
bahsedilen
ekstr
tüfe
boğuş
avukatlar
california
sahibiz
sayfalık
yetişmiş
mevsiminde
##olun
css
takipçisi
püskürt
gönderilecek
mevcu
numaranın
öğrendi
##alılar
zamanını
kaşar
kapitalizm
##ude
örneklerinden
kurun
imtihan
işlerinin
değerlerinin
##üyoruz
semineri
##ders
victoria
him
aracılık
sezonunun
akgün
justin
kıdemli
##şat
ünlüler
büyüğü
rtük
yürümeye
temelleri
maksadıyla
##ığı
analitik
i̇lyas
i̇ttifakı
cry
sincan
tanısı
tercihleri
gaziosmanpaşa
tahliy
dileyen
##rant
ararken
isteyerek
##bara
850
gösterdikleri
##lerime
görüşünde
edrem
steril
uygulamalara
##usan
kaçakçılık
onarımı
çalışmalarımızı
olimpiyatları
##ely
diziyi
edeceğiniz
gelmeyen
##ilmis
yaptığınızda
düştük
zirvesinde
masanın
kapatın
reyhan
naylon
bunalım
##yıla
##isar
i̇dr
çöpe
##ılınca
ışığın
ediyorsanız
uçakları
bilişsel
önler
arter
yorgan
seyit
teminatı
büyükelç
dezenf
anlayışının
üstlendi
127
bulaşı
##ıltı
db
##rap
afrik
beğenisine
inanır
ateşkes
##iyetin
##luluğa
ormanda
sahiplerini
keşfetmek
marina
ilimizde
bebeğe
santimet
##panya
sinirli
kafasında
sult
senk
yaratılış
herşeyin
kapaklı
kesilmesi
annelerin
erkenden
talepte
böceği
ölümle
sanata
bitiminde
camisi
desteklem
playstation
dark
sağlıksız
beraberindeki
##amaya
seçerken
##emens
ilâh
ilgiyle
fedakâr
binde
##leşmeye
çektim
tatlısı
##68
durduğu
geçmez
##lamayacağı
sağlanmıştır
##usundaki
içersinde
i̇stihdam
yanlız
görüştük
hayvansal
söylemiştin
ödemeyi
journal
rövan
sürmesi
road
müebbet
cazib
##ilebiliyor
şeytanın
##inecek
okullarında
hans
##tm
##ello
kaybedecek
linki
bakışta
bulutlu
doğacak
peda
##´nin
##liyim
şehid
rızası
alz
telefonunuz
manzaralı
sokmak
küre
##i̇ye
165
yöndeki
namazının
kaynaklandığını
zin
##ýnýz
konuşmaların
games
şehirdeki
##wagen
##elin
halktan
paylaşma
yaratılmış
arch
fro
kilitli
savunması
##oglu
gözün
yasalara
huzursuzluk
krema
kameralar
##iyseniz
alparslan
baran
düşündüğünüz
başkanlığa
sodyum
hareketini
anlayışına
mevzuata
çın
teog
sabiha
##umuzdan
maskesi
bağlılık
yazıldığı
incelemesi
sair
hikâyesi
arabada
1800
##igo
milano
düzenin
bildirimi
muyuz
içindedir
reklamları
gürcü
pencereden
dönmeye
satışlar
kanallar
konuşacak
şehrine
güvenini
fıkıh
sauna
etkinliklere
##ozom
firmamızın
i̇bb
lütfi
doğumdan
agresif
##ilan
##melerde
##iloc
hayırsever
içen
farklılıkları
kalbinde
dinliyor
ailelere
##ister
etmektedirler
ayağını
zeker
i̇şyer
içimden
yakıştır
anlatıldığı
belirttiler
koşuluyla
kullananlar
parçaların
kanın
alamayan
futbolun
dikdörtgen
tarçın
##mamın
##tent
gruplarının
##ations
##kie
fişek
temizlenmesi
fosfor
edilmeyen
lezbiyen
##diyseniz
pierre
şartların
toner
şansınız
kaydedilir
##lığımızın
mw
ölçümü
niyeti
uygulayın
yapılabilmesi
aky
wikiloc
tulum
##binlerce
kukla
getirisi
##ater
büfe
yayınlanmış
tanıyorum
ekonomiyi
doktorların
haberimizde
##lıyorlar
dayanılarak
maçlarını
sofya
saçı
sınavında
acıbadem
apo
##dayı
ampul
mid
##lerinizden
ibret
beklemeye
##´da
bağımlılığı
distribüt
yaklaştır
tcmb
diğerlerinin
nakliy
işbirliğinin
yazılımları
dikkatlice
manevra
kurumunun
adaletin
##nem
hemşirelik
##link
##hadet
oğlak
yaşayanlar
vesileyle
asliye
enfes
ölümün
girişiminde
gole
sahih
simon
keten
photoshop
gölbaşı
##ider
haliç
yürüyüşe
incelik
uyarısında
prestijli
araban
veriyordu
national
çetinkaya
müdafa
insülin
##pn
alışverişinde
ruhani
kesinti
cila
zamankinden
ürk
yolcular
280
inip
oluşturulacak
söğüt
lahana
sakar
soracak
##dm
ailede
##cb
geldiğimde
hedefleniyor
şansım
##ysan
kurumuna
keza
yemekte
çerkes
anlattım
kızlık
minar
etmediğini
mili
çekirdeği
dosyanın
cenab
i̇skan
enerjisini
bayrampaşa
yakalanma
isteyebilirsiniz
çevreyi
##icik
multi
##eze
getiri
fp
vahim
sermayesi
solucan
menop
necmettin
gazetesine
dokunulmaz
sağdu
üzerimize
ronaldo
##lıyız
bow
edemem
##oman
dönüşen
analizleri
bittiği
##tığımı
tepeden
720p
edeceksin
kavuştu
edilmem
istersin
hanımı
toplant
##cini
ulaştığını
tayfun
projelerde
hastaneleri
reçete
borsada
şirketlerinden
yaratmaya
##inip
uçakta
yayılmış
oluşturu
statik
oluştuğunu
##misiniz
çeyiz
molla
galata
siemens
iletim
##ote
anneme
görmektedir
varlıklarını
planının
##inle
edilmemiş
nedim
zür
çevirmen
saydam
antonio
görelim
noktalarda
şehirden
mendil
benimde
sözlerin
##gaç
kurduk
tari̇h
başlayalım
sustur
pf
elvan
reşit
yaparsan
türbanlı
matematiksel
sınırlama
gerçekleşiyor
borcun
stratejileri
durdurulması
hallede
halife
mekanın
yürekten
taşınan
##lanmasında
##cap
kaderini
eşyası
vasıta
gelebil
başlarlar
##stone
sorma
##icisi
hisarcıklıoğlu
mozaik
bany
belediyelerin
bakanlıkça
feribot
harbi
##iyev
travel
topraklarına
hedeflerini
cenneti
ayrılıp
gard
dif
hamit
binaya
porsiyon
üsküp
âh
ayakkabılar
kayıpları
sağlığa
reformu
##reş
asus
canlılar
seviyeleri
tuşu
bakanlığa
kafat
icraat
semtinde
steven
kanad
sözleşmeleri
vermeleri
i̇lçesinde
oluşturmuş
varlıkların
hükme
volks
başlayacaktır
##blo
makamı
hakemler
çalım
anladın
##inger
sayfalarında
tepesi
temsilcilik
oğuzhan
müft
arak
belgeyi
edremit
yaraya
candan
ermeniler
gemide
kayıplar
allahın
gittiler
evlerinin
halkalı
anlaşılacağı
durumlara
külliy
duyacak
uygulamalarında
under
öngörü
türde
arkadaşlara
bağımsızlığını
köyüne
konuşuluyor
lady
makb
çıkarılmış
##ques
sığınak
etmiştim
sonlarına
görevlendirilen
karışan
walter
ruhuna
orayı
düşünülmektedir
varsayım
kalitesinde
tasarıma
teyze
memnuniyetle
hi̇
gömle
konuşmanın
ürkü
parçasını
işimi
adaylık
mahir
sürücüler
şiz
##eyken
arkadaşına
yuvası
meseleyi
gideceğini
mef
stock
##burgaz
dinleyin
inandırıcı
çalışmalarından
gerçekleştirilmiştir
aram
tedavisinin
apar
bulmaca
adıma
kardeşini
i̇ranlı
şenliği
işlenmesi
batık
##iliyordu
galibiyetle
vermenin
##asc
verimi
rakı
edildikten
yapılmaması
takibe
yapmanızı
çapta
bült
##chel
nej
kürtaj
pad
rauf
##bro
kefa
inanıyorsanız
sinsi
sosu
sınırına
kelimesini
miktarlarda
yazısını
sokaklara
kaldıkları
düzenini
##köprü
önergesi
bulduğumuz
eşyanın
cezasının
dolum
siyasette
bağışı
edi̇
rahatlık
önerdi
yemeğine
sakatlık
carlos
ekspertiz
takıldı
gelişmeye
izleyiciler
erişkin
fotoğrafın
merteb
balıklar
sevdir
arthur
topuz
öğretmenlere
görmemiş
kanatlı
rafa
rp
topuklu
ulaşmayı
nezaret
gastr
kullanılmasına
ilgiyi
almanızı
akıllıca
izniyle
atılacak
yarışmanın
sitenizi
##ame
gösterişli
##04
haftadan
verem
şapk
zelanda
kaynaklarına
kitaptan
##âmet
bağlantısını
first
batıya
kablosu
ödeyerek
konsoli
terazi
olmalıydı
kaymakamlığı
ucuna
##ti̇k
##rich
zarı
sanayici
annesine
artırıyor
çağrıda
işgali
nüfusa
hizmetten
içgü
mich
istemediği
zevki
oluşumunu
uyul
honda
sergileyen
bilgisayarda
sebzeler
pok
kurula
##lerans
##dükçe
dershan
gemiler
araştırılması
##ürn
sisteminden
görülmemiş
uyumsuz
insanla
şeridi
geliyoruz
kurulmasına
nohut
##layacağınız
barışın
##oğlan
pab
##maların
çıkarmayı
savaşlar
yitiren
ilgisiz
birisine
görüşmenin
i̇lanı
slayt
ozel
##emet
##liğim
girdiğinde
hepatit
dörtlü
elim
acik
yangında
uygulayarak
kapsayacak
dokunun
envanter
banko
tadında
##beli
yanıp
furkan
seçebilirsiniz
rakibini
parçalarını
arabuluc
funda
ulaşmaya
filmlerde
seçimlerine
mekanlarda
adresinize
##laşmak
piç
i̇stasyon
i̇stanbullu
taraftarları
enc
##larız
ziyaretleri
oynayarak
##çeşme
alf
ekranın
##´ın
sınıfında
tarafındaki
kurdukları
valen
hesabında
##şeh
giderim
kurulur
ihtiş
tasla
yollarının
girmesine
puanlık
ifadelerine
##71
yüc
gerçeğin
hill
derdim
224
##omik
medyaya
nede
belirtilerek
fonksiyonları
##ector
avni
mani
takipçi
sigarayı
##mân
##eyan
1918
ayrıcalık
trajik
gönderebilir
işbirliğini
ortop
tamamlayıcı
nesi
uygulandığı
poy
gürsel
anneleri
kenarı
bahsede
seçici
büyükler
yapmalıyız
olmamakla
##ball
dönemindeki
yağdır
finalinde
birleştiren
muhtarlar
gidince
vücudunun
soba
delalet
desteğin
tatlıses
dayanıklılık
planına
biliyorlar
arşivi
yaşamlarını
kaybettim
markalı
bulanık
raylı
çalışmakta
ilçemiz
yilmaz
kampa
bildiğin
birbirinin
yakalamış
##gra
görürsünüz
değişikliklerin
çeşid
öfkeli
demeçte
yönüne
erbaş
laur
##labilmektedir
kle
birbirlerinin
görmeyen
kullanımında
çıkacağı
chelsea
hoşgeldiniz
##yek
kullanıldığında
dalgalı
kırgızistan
edward
duvarlar
##gust
##ius
yönleri
ayrılmaz
gökçen
yokuş
ilm
##düğüne
ilin
ödemeye
yatıştır
kalanı
kemi
yaşayarak
telaff
i̇ftar
göğüsler
uğraşmak
sarar
bad
paylaşıyoruz
sigor
besleyen
resimlerin
şansına
111
cola
tersan
günlerden
geldiğim
gözünden
buralara
şemsiy
##shop
##mayacaksınız
uyarıcı
yapılmaya
aliağa
##öm
ülkelerle
saraybosna
söndürme
kapatıldı
programların
##96
buket
planında
stephen
partide
bülbül
devletten
etrafına
uyuşmazlık
açılmasını
kadastro
tmm
bariz
tahkim
beğendiğiniz
göktürk
ayaklar
kabus
bergama
taşıması
yapmalıyım
yetmezliği
telesk
tahribat
gözüm
atarken
işlemlerde
edilebil
verilmez
tamamında
dusun
gülün
bað
gücümüz
sakıncası
kulağı
degis
siktir
yurtta
eşittir
##anya
yunanca
talebinin
başvurdu
gittiğimde
didim
kamuda
aracını
içime
avlu
terzi
maddeyi
yararlanabilirsiniz
enflasyonu
bağlanması
üretimde
kurtaran
kaplıca
##giller
alındıktan
solar
karşıma
tin
##kir
etkileye
kompakt
salona
atması
kullanılmalıdır
oynana
alınırken
ortalığı
acemi
evinizi
şort
sebeplerle
okuna
yayımladığı
tartışması
hayranı
kongrede
gittiğinde
olm
tanıştım
micro
faik
haberim
geçmişteki
slovenya
çıkışlı
##ер
hatırlatıyor
sembolik
##vice
wifi
desteklediği
ctp
borsalar
riy
yaşananlar
##ign
hiv
insanının
kadından
konudur
genelindeki
vurmak
kuruluşundan
lardan
beklentilerin
yangına
açtır
##ecd
pancar
taylor
##oza
kadr
doğrulama
derd
taşlı
##boş
balıkçılık
bitirme
bem
terörü
mimarlar
##efi
özden
ink
aynısı
sevgiyi
tığ
gideri
control
belgesinin
meçh
kaybetmesi
rumlar
panor
görüşür
yürürlükten
cevizi
yaradı
vallahi
birimlerinin
rengin
uzmanların
koşullara
termik
##urs
etkilerinin
işgücü
##li̇r
nail
unutulmamalıdır
##işt
saçlarını
malzemeden
francisco
116
şeyim
tavsiyeler
##gimiz
kasten
stad
bilgilerle
köpeğin
şifren
aktarılan
dualar
elizabeth
verilerini
##mışsın
revize
gördüklerini
hacker
##tgen
vatandaşlarının
üyelerimiz
pilsen
önyargı
ilik
sakatlığı
otizm
ortamına
aşamaya
ölçüsü
nakış
bozuldu
asr
ayarlanabilir
saklamak
çekilir
değişebilir
çiğdem
şurada
evliya
kuruluşlarında
ilmek
ağlama
bağları
içmeye
how
sahasına
faul
anlaşmalar
değersiz
##yl
kulüpleri
tanımayan
##manızın
afp
##çar
seyirler
unuttum
koymaya
görünüyordu
zeminde
yaptırdığı
mütevel
gedik
aksat
oranlarda
bağlanmış
zorundasın
sergiler
i̇nanç
1922
tans
köylerde
yapılanması
wid
ass
ilâ
bafra
sitenize
başsavcısı
##yınca
çizgiler
oturmak
enes
tavsiyem
nük
bakanlığımız
ölüyor
götürül
side
sher
kafam
peygamberin
üniversiteleri
düzenleyerek
gecesinde
polislerin
##memeli
ayağına
bahş
kisa
ihtiyat
##vard
örgütlü
stajyer
soz
ilçemizde
festivalde
##koca
darı
bilkent
have
özge
aur
##lasını
gördüğün
arttırılması
öğrencilerden
volkswagen
konuşmasına
##eleştir
belgel
fizyolojik
galibiyeti
baklava
gari
uygarlık
tepkisi
##masina
kendimden
marx
press
luces
yöntemdir
##tülüğü
iletken
##lanmaması
yapılabilmektedir
değişikliğine
toplantısının
gelirlerinin
çapı
sessizlik
kalbine
varlığın
florida
reklamı
andıran
sağlarken
##°c
##ain
gözlerim
başlığıyla
hatlar
yaşay
safha
baktığımda
ulan
##süne
kaybettiğini
düzenlemelerin
bölük
betim
tuvalete
anlatma
nesillere
##miþ
kitlesel
şehirleri
444
özenli
glik
yüzyıla
amerikalılar
sürtün
toplamaya
meçhul
yaylası
rif
vatandaşlarımıza
edindiği
sayış
imparatorluk
##çalı
bırakalım
geçmişin
uzaylı
##lararası
gecen
benimse
modellerinde
##kor
##ан
vücuttaki
otorite
##far
vr
##ceğim
olsan
tsi̇
##malara
seviyesinden
##oca
abartılı
fayans
konj
##lemi
##mahalle
yardımına
rober
yaşatan
##asy
nebze
ediyorsa
##sık
başının
##caret
söze
gitmesini
makalede
sallallahu
provok
tex
saldırısına
tartışı
uygunsuz
soruşturmanın
ucundan
##ree
##94
yemeğin
yapacaklar
zeb
ther
##vler
düzenlemenin
zemini
açtığını
seçiniz
cons
##meyelim
##dey
yapılmadan
toplanarak
çiçekçi
##leştirilmesi
senarist
hayvanat
kepez
tanrısı
sayılabilecek
kanunları
i̇ö
bütçeye
küçükken
i̇la
kıpır
zindan
hepsinden
hizmetlerden
gerçekleşmiş
geçilmesi
##ecekleri
sınıfına
1959
i̇çerisinde
attık
kocan
mık
gemileri
kurtulan
listenin
ilacın
yerleşmiş
inandığını
viraj
antrenörü
fernan
teselli
##bun
##abat
noksan
##meyerek
oyuncaklar
zorlanıyor
keçiören
tesla
atmayı
operatörü
sayfadan
kadardır
sayfasını
feh
takımla
yüzyıllar
alerji
demokrasiyi
toplumların
alsan
bittiğini
denizaltı
gelmeyecek
gelirin
##bahat
açılmasına
bid
##vatan
duyuruldu
mastür
parlayan
kaldıran
yenisini
hakların
narin
gelişi
##lığınız
politikalarının
kullanmaktadır
##eviç
görmekten
üretiyor
##tihar
lucescu
çevrenin
sinyali
slot
dermat
sahipti
teçhizat
karamsar
müftüsü
sopa
##tikçe
kocasının
oecd
hekimler
veyahut
şizof
tahsin
oralarda
##eng
yerim
reb
babamı
uğrar
1938
hikayeyi
çıkın
sıkıntıya
sularında
umr
yaratıcılık
##âne
indek
pırlanta
davasının
yaratmış
amına
saksı
ejderha
oruc
sekizinci
ilerledikçe
hayvanı
yollu
molo
terörün
##onk
önerilerini
##pin
1954
şaman
albert
##lenmek
tepkisini
düşüncesiyle
zana
gelişir
##asyonal
anlatılıyor
antide
karakteristik
##mayacaksın
christop
kartviz
sporun
işiniz
##beyi
geçebilir
yayin
geliştirdi
hayatımızı
öldürülmesi
amino
hakkıyla
kapitalizmin
klibi
parkta
merkezlerine
güzeldir
peder
olaylarda
vagon
empati
engeli
ulaşacak
veremez
matema
kaybetme
cüzdanı
puanlar
türkan
topladığı
demirören
havza
##max
yag
##darı
harcaya
yakalayan
araştırmalarda
çapa
ayşegül
##güm
sağlayın
nişantaşı
düşüren
poyraz
araştırmak
tarihçi
projeksiyon
minimal
yenilenmesi
ifadeyle
bizlerle
geneli
almadı
geliyorlar
türkmenistan
antlaşma
sıfatıyla
koordinat
adobe
okuduk
çerkezköy
yemeğini
söylemeliyim
diline
döşem
##esans
sakinleştir
faturası
müdürlüğümüz
üründür
bitimine
güneşe
kurumlarda
yenişehir
bulaşıcı
isteğini
seyyid
ange
##lığınızı
kökü
konuştum
yerken
birliğini
yaşanması
##ladın
b2
bahsettiğimiz
basan
açmıştır
kanıtlar
gürültülü
kitlesi
içerikler
##isiydi
tiroid
yaşasın
muhsin
duyum
i̇ti
yüklemek
##wan
konularla
listeler
school
i̇dris
##via
##rab
nov
yayınlanmıştır
cumhuriyetçi
soner
dondurucu
konferansta
rejimin
metreküp
sunucusu
sım
bebeklerde
öldürüldüğü
ürünlerle
kapısında
girebilir
kota
bölümlerde
aksesuarlar
geli
çıkarılacak
hüzünlü
dakikaya
karna
##isiyim
listeleri
duyarlılık
##tiğimi
ilkeler
kutlamaları
politikalarını
tıbb
saldırdı
eleştirisi
formatında
alzheimer
parasız
düzenleyecek
eşyalarını
binalarda
##lendi̇r
sevinci
hormonu
tüneli
birleştirerek
ida
müdürlüğünce
çalışmamız
söylemez
saygılar
açıklanması
düşünülür
kumsal
##cuları
yöntemini
kadarını
gösterimi
yarışları
##ovic
##leşir
hazırım
refleks
pehlivan
fair
##mp
kru
yazacak
ihsan
girmesiyle
ayarlama
temasa
odur
edit
pegas
zevkle
adedi
haftayı
ig
etmişler
deneyimleri
yapabilen
##lanmadan
habercisi
renklendir
medyumlar
yayımı
ortaköy
uluslarar
ikon
tavsiyesi
abdülhamid
##leşiyor
işbirliğine
margar
ödüyor
##landım
lum
birş
aylığı
anımsatan
verirse
yükümlülüğü
yazılmıştır
itham
düzenleyici
işçisi
enfeksiyonu
kuzeyindeki
karısını
getirildiği
değerlendirerek
ezilen
sitemizin
sağdan
noktasından
güzelim
i̇nternette
dead
kurtaracak
incir
##ро
senenin
yaralandığı
şirkette
oluşturulur
yandex
birka
bozucu
üzülüyor
esed
bakir
özellikleriyle
sevginin
ılımlı
acıyı
açması
##liğinizi
tüketiciye
##üel
##lanmaları
fotoğrafçılık
##hie
barbie
kilidi
gemiye
söylüyordu
şikayetleri
çocuğuna
amacının
seslerini
kutluyor
müdahalesi
##üzzaman
dibinde
##çayı
gerekecektir
tedarikçi
setleri
images
otopsi
sancaktepe
ölçüleri
konuşarak
kelam
basınçlı
##200
zararlar
efendisi
indirdi
kesiminde
kolluk
gitmesine
irdel
sorunla
vanilya
##彩票
antidepres
istişare
getirilerek
ısmar
isteyip
bulunmuştu
krizden
##emediğim
bendinde
meal
una
cihad
##bran
katili
duyurusu
hyunda
tedbirlerin
değiştirilmiş
gecek
oluşturuldu
rakibine
resmin
koşulların
örneklerini
1962
çalışmasında
süsleme
well
tedavileri
çocuklardan
standartlar
hisseleri
kalıntıları
öldükten
görmekteyiz
tebess
kökten
divanı
beklemeden
kolombiya
istikrarı
battal
hazırlıklarına
azim
mesafesinde
unutmayalım
##cağınıza
grey
birbirlerinden
uygulanmasını
ciltte
mühimmat
sahiptirler
##bbe
i̇znik
kuantum
dışkı
mason
##mağı
270
ulaşmasını
coğrafyada
ödemeli
tarihî
bileşenleri
plazma
ışıkları
güvenliğinin
lambası
azalarak
vegas
gördüğümde
tüketilen
memleketin
olamayacağını
beyanı
ataköy
suretle
##iste
derginin
çatışmada
başvurarak
uğraya
##istim
tanesidir
kük
sound
##gır
derinliği
alacaklı
mercimek
i̇ddia
yargıya
dosyalarını
satıyor
kepenk
zı
##lanmadığı
xia
kahire
almanlar
lirayı
dağlık
alayım
114
sirke
harekât
arasinda
anlı
erkekle
andrew
miller
kurulda
bulundurul
scripti
rasyonel
bulunduğuna
cezayı
ihtiva
body
dalları
ales
amacım
##miyorsun
##aye
boran
vakıfbank
pide
dönüştürül
davranan
esaslara
köprünün
muhafazakâr
işlerden
mahz
##ýsý
##masınlar
arıyoruz
tekli
korn
azab
girdiler
harcamalar
##li̇ş
eurov
##layacağını
amirliği
hücrelerinin
bulamayan
kompleksi
şehirlerarası
okuluna
karargah
derslik
##ıhtı
farkındayım
kardeşleri
efendimizin
boyutunu
alaca
tartışılan
kılınan
vazife
fuhuş
sanır
camp
dream
öğrenilen
sözleşmeyi
##cast
edebileceği
tyt
albümde
indirin
##dus
maddelerinin
alandan
ayrıntılar
sürmektedir
1955
raporunun
ödüle
ünsal
eft
konfederasyonu
alırız
tabanc
müge
idman
tutarının
rakamlara
stili
dgm
karþý
##ilmen
mezarı
düzenler
##87
kilisenin
ikinc
dünyasından
sonları
radı
çoğunda
##ansın
sarısı
sektörler
insanda
edeme
##layayım
saklıdır
kram
##mişim
##enti
tasarının
##very
vücudunda
point
porto
kaldığımız
zemine
başarıları
##etim
saht
##manızda
jav
hazırlanacak
rekabetin
milyonluk
conta
haftalar
bitmek
kastet
sın
geometrik
renklerde
buradayız
johnny
##tima
firavun
kurslar
getirirken
ormanı
başkalarını
akademisyenler
sağda
kansere
almamız
oynamayı
bitirdikten
paralı
sözleşmede
resi
zamanlarında
seat
i̇şsizlik
##iyetine
canlıların
havaalanına
sandım
##severler
bakışı
michel
##62
level
ağabeyi
etmedim
tanınması
tilki
artıracak
anast
zorundasınız
kahvesi
voltaj
söylediklerini
buldular
olamayan
bayıldım
temsilciliği
biçimleri
hulus
ferman
kurulmasını
şili
##uyum
binasına
sistemden
hilton
rakamın
okuyabilirsiniz
yaklaşımlar
koymuştur
jos
çerçevesi
gözyaşları
kumlu
araplar
studio
vizyonu
sho
sitelerde
aldatma
##osit
kaldılar
disney
santa
yemeğ
kulluk
barınma
kaynaklanmaktadır
türklere
yürütür
##ımına
yaşayıp
düşüp
amiri
yargının
##dian
dilinin
genelg
torp
##run
mekte
merkezlerinin
##ection
aba
alanından
##uhan
hidr
rut
sistemlerine
övg
savaşmak
hyundai
evlerini
like
türlerinin
##yasından
fram
yerleştirin
projelendir
konağı
i̇ncir
feci
aşısı
hesaplarına
##lettin
adren
mezheb
titreşim
next
düğmesine
çıkarlarını
beyefendi
partiden
##laşmayı
##sing
birdenbire
çizerek
buldun
##col
sahneleri
nemlendirici
sunma
arm
##ralı
terleme
bıçağı
duası
destekleyici
şantaj
sokakları
noktasını
##vanta
manager
##bına
almalı
şifalı
kalacağı
borusu
senkron
çıkartı
sanıklar
anarş
çalmak
salatası
ilerlet
gezip
türkçesi
misal
birilerini
won
farkli
oyların
resimlerini
kıvan
milyarlarca
görüşmelere
danny
alınabilecek
davaları
xml
papatya
patlak
aci
ing
geçildi
yakınlarının
istatistikleri
zihni
koşarak
sınavlar
kapatan
hamburg
okuyacak
üzerime
rio
ağırlığında
bozkır
##xx
chu
barut
inisiyatif
oğlumun
etmiyoruz
nikâh
yatırımın
mastürbasyon
##mistir
cevher
yüklenen
hepsinde
kıvıl
1924
##97
müddetçe
milit
kıymetler
düğünü
arnavutköy
birbirleri
prototip
kompres
fotoğrafta
okuyu
kurnaz
davranışlarını
çarpışma
çabucak
duruyordu
bayanlara
allâh
teknikler
sıçra
belirti
belgelerini
emn
erişilebilir
##´de
yapamıyor
##übey
eninde
dolunay
önümüze
##cacık
allen
satmaya
güvenen
##ilmeleri
þek
kava
yapacağımı
daya
ký
miydin
odayı
yüzyıldan
arazide
das
priz
kemeri
halkbank
kondom
yangının
toplanmış
dakikasında
daily
kutlamak
shan
gülüyor
kaçıp
##tral
bozulur
gelindiğinde
musluk
olamadı
pegasus
etmeliyim
proses
şeyde
yazarların
jüp
rabbimiz
öğrenin
geçmişti
1948
bala
sempatik
kefalet
tarifler
operasyonlarda
olmadık
şeklindedir
##üğe
günümüzdeki
karl
##cho
##lanacağı
erteleme
modellerinin
bluz
çıkarlar
gerektiriyor
yürüdü
##üsüz
uygulamalarda
içerisindedir
artırmaya
hassasiyeti
##boz
meltem
ankar
##riyat
özelliklerin
ekranında
dakikadan
yeşim
onk
vermediği
akılcı
görülme
öneriyoruz
kordon
##latıp
ilişkide
koltuğunda
annemi
##amaması
bilgileriniz
liginde
bakarsak
##mün
atay
spekülasyon
teşhir
kabiliyeti
hayalleri
kıyafeti
davetli
bilmiyorsun
kartuş
yapımcısı
franch
motorun
tesekkur
tamamlandıktan
prodüksiyon
misyonu
müdahalede
artarken
##tığının
seçimlerinin
gitmişti
1957
katedr
barbaros
yeteneğini
gösterirken
batıda
##para
filmlerini
bıçakla
ekleyebilirsiniz
anks
öğrenince
##panak
bölgelerin
turnuvada
safra
3g
şahısların
kelimeyi
gif
##arp
kırmak
istemiyorsanız
konfeksiyon
sanatçıları
yakınlık
ihracatçı
##emit
yenimahalle
düşüncenin
amaçlıyor
biricik
1958
atışı
hent
yarışmacı
yarışında
##ihat
a101
sörf
baktığımız
atalım
vatans
göründüğü
saldırılara
i̇lanları
mehmetçik
menteş
afad
buluşturan
analog
##abeti
##ındak
değindi
gerçekleştirerek
dayanmaktadır
itfa
büyümeyi
##lasına
aklında
modeline
old
vuruyor
radıyal
kv
kralın
gemlik
sancı
ürünlerinden
inceledi
##ileşme
yetkililere
dansı
boşnak
suçlarından
kalmayıp
kiev
iletti
i̇fade
anlaşmaları
önemle
haberlerde
liseleri
tesadüfen
jason
##ilmeyi
avea
i̇man
ziyaretçilerin
mgk
mikrobiy
halat
komisyonun
##gua
pusula
bulunduk
seyyar
yenisi
küst
mezarlık
kaynağıdır
müteş
mesafeli
##perver
sığdır
seksen
yerleşti
altmış
sultanbeyli
sevdiğin
küpe
yaşayabilirsiniz
engellem
sohbeti
gelenleri
kh
kızımın
i̇slamiyet
getiriliyor
##eceli
i̇ndirim
tırmanış
terimi
komando
merkezden
dönemleri
giymek
volvo
doğayı
ayrica
##ekin
sıralı
halled
duydun
alexander
çıkı
i̇şadamları
üzüldüm
sayıdaki
öğretimi
batar
ağaoğlu
pentagon
psikolojisi
saldıran
##osta
bell
sayfamızdan
inşası
##izan
i̇ade
##burger
piyasaları
sözleşmeye
değerin
emred
güçlendirilmesi
döndüğünde
eğlendir
##ecilerin
ahbap
##ranın
yüzeysel
hapiste
izlediğim
uygulanıyor
tüketilmesi
çıktılar
yanlıştır
normale
çıkarıldığı
vurur
delir
duk
sahnesinde
telaffuz
döküman
saptır
vatandaşlarla
morgan
sensörü
medyadan
botan
azalan
boyalı
##ılsın
##lamam
besleyici
kimlerin
insanlarının
bırakmaya
pun
##liyat
öğrenimini
konsepti
olmamıştı
paylaşmaya
tuğba
lokomotif
330
kapsamaktadır
bükreş
altin
##uer
##itin
korkutucu
vi̇
karşılaşan
##nar
imzasını
etkilediğini
doldurmak
tüpraş
hazırlıyor
##gia
yarıyor
sure
götürüp
kasabası
deneyimlerini
i̇deal
mangal
gördükten
oluşturduğunu
soykır
##tukları
gözlerine
keserek
##lide
olaylarının
tesislerin
devriye
gelib
dakikalarda
görünmek
düzenleniyor
kt
tabut
savcılar
##baç
hızda
payının
dinçer
menajeri
çıkartmak
hulusi
##mamıştım
kapasitesini
paylaşarak
kategorisine
laboratuvarı
boza
bediüzzaman
225
doğrama
direktif
pişmiş
calı
##ânî
##meyiz
bakımını
müziğe
aletler
alırsınız
elleriyle
aklından
temsilen
ubp
tatilde
##tiyar
bırakılmış
kabr
kaldırıldığı
andy
göndermiş
çalışıyordum
düğmeye
##dici
touch
gömülü
gercekten
durumlarını
etmekteyiz
konuşup
otururken
zorlukları
yapamam
##unup
yakalanması
card
talebe
seçmiş
oranlar
hikayenin
yüzeye
karışma
sıkma
olsanız
gruplarına
barındırıyor
değerlendirmesinde
işliyor
##ovo
yaralar
##yön
ferm
finansmanı
şartlarının
stefan
camiye
alkan
üstte
otellerin
dl
karatay
inanı
orantı
lew
lisede
kartını
daveti
seyreder
##wards
acentesi
kariz
golünü
bakabilirsiniz
zombi
bilirler
yerleştirilmiş
joy
yönelim
denilince
görevin
soci
otoriter
##eling
##leştiren
yapilan
dokunma
ortalıkta
narkotik
manis
aleyhinde
emekçi
##ilebilmektedir
işyerlerinde
alanlardan
çağatay
##master
istemiştim
tmmob
soykırımı
##ebiliyorsunuz
implant
kapanan
tâbi
artırdı
yetişkinler
sevmem
vana
mesajlaşma
mamak
geçmiyor
compan
bayım
mudan
gerekenleri
gerilla
juvent
##lanmalıdır
dengeyi
iradesi
düşmanın
tommy
1080p
##84
##lî
zikred
varım
aracına
gideceği
eczacıbaşı
azıcık
saltanat
marj
##tesiniz
fera
kilosu
konuştur
şaşırdım
başkanlığındaki
elektroman
çikolatalı
bıraktıysa
ilkelerine
ayaklanma
silmek
gevşek
kursa
olmadıklarını
sektörlerde
baskılar
##elenmiş
##iralama
ının
aygün
gösteriler
hastanelerde
kaplumbağa
##uspor
kalkanı
hizmetimiz
uzantısı
aer
147
##i̇ni̇
bahsediyoruz
##ortis
müdürlükleri
arabayla
##digini
şekerli
duyduğunuz
selin
##eydim
kalınlığı
kayıtlarına
kalkıyor
sorabilir
##dığa
mimarı
güt
##guay
kesimleri
##lamadığı
bakıyoruz
müslümanları
polyester
doğranmış
boykot
##eliyim
##online
yardımları
arşivlendi
yürürlükte
space
doyası
girmez
sağlanabilir
ihtis
hukuksal
detayı
esma
doldu
ördek
kaydedil
vahşet
istiyorsak
mahsul
şifresi
ihbarı
politikacı
hatayı
taşımacı
tevhid
jant
köşkü
güvenin
ailelerinin
boktan
sterlin
##ğındaki
körük
mobilyaları
bahadır
vinc
elimizdeki
kırgın
##peş
olsunlar
kombinasyon
düşürdü
##ininin
sensiz
##ista
paş
tekni̇k
moloz
lokma
başlatı
kapağını
odasının
ramp
canına
gerilimi
yararlanan
başlatmak
auta
akalın
seansta
gelibolu
babaları
gösterecektir
malul
güçlerine
beat
toplantılarda
kalkmış
comment
profesörü
##mediniz
alttaki
latince
sıcacık
doktorunuz
bitkinin
eşimin
##laştırıcı
301
korunmasına
duyduklarını
tedavisine
şarkılarını
sepeti
sahtekar
sahur
##erim
##emediğimiz
isabetli
karad
yerlerinin
##iskop
sual
rasul
öldürüyor
cru
hakemi
tanıtan
görüntülendi
örgüte
yayıncı
buluşmak
stüdy
oğluna
##itme
seçimden
gamze
##diveni
hez
iller
##iii
##cket
##gine
fesih
çevirisi
state
tanınır
tayvan
huzurevi
babama
olmasi
##tücü
kanadı
oluşturulmuştur
alacaksınız
çile
##işer
kaldığım
taraftaki
bele
baka
ateşin
##meci
insandan
juventus
ortalık
alamıyor
türker
boyuna
kapama
savaşının
zümr
istediğinizde
vardir
görüşen
başarmıştır
##bridge
değişikliklere
nano
##izasyonu
aşağıdan
konforu
eurovision
doyasıya
##ğun
girilen
yapabilme
##i̇f
mesajında
kızılder
##maktadir
mahkemesinin
mekana
çalmaya
belgesini
260
çakıcı
ilçelerde
rabbi
öpücük
##alma
bölgesini
##ет
çalık
etkinliğini
ifşa
bereketli
andaki
olmamalıdır
dökülmesi
cadd
##tenin
veremem
solcu
##çuluk
internetin
özelliğe
sözüm
yansıtıyor
patrik
yapmışlar
şikayetler
##fur
gönderin
deneyimler
düzeyini
simge
açıköğretim
jüpiter
öğeleri
acılı
##ti̇r
esneklik
tanımlayan
uygulamadan
onaylanan
faktörleri
gence
zina
##laştıran
görmüştüm
##ğinden
seviyeli
çıksın
özgürlüğünü
kamaştır
unda
türküleri
vâ
görevinin
milletimize
cezanın
##fel
olayına
saçların
kimselerin
sürücünün
uyurken
##ofya
bünyesine
grubunu
bitim
oluşturup
retro
sirkü
##tırken
sıklığı
kocael
dönüştürmek
meriç
arayüzü
mahallem
anıl
via
deterjan
hâline
asansörlü
по
view
umutlu
gölet
duydu
##ilebileceği
karıştırma
kalitesine
sivilc
ikaz
suça
##asıdır
seçimlerden
erdemli
hapishane
şat
eklenti
atlantik
our
başkanlarının
koyduk
sarsıntı
i̇stanbulspor
terörizm
mona
özellikli
##lanırsa
evliliği
spo
amc
unutmak
ordan
ifadesinde
gözenek
almamış
safh
##2311
ellerindeki
sorunum
drone
seçilecek
##َا
alınmaz
fabrikasında
tanıtma
barkod
remzi
sanıkların
önden
nasib
doğmuştur
sitemizdeki
geldiğimizde
toksik
etmemesi
gelişmesini
##kum
hazırlıklar
eskim
çağda
mektupta
yaklaştı
harbiye
sergiledi
imiş
gerçekleştiriyor
alıkoy
yufka
phone
değilseniz
haklısın
rövanş
aylardır
taburcu
dekanı
hastalarının
yardımlar
tse
flört
omz
i̇nsanlık
duyguların
itici
dokuna
##adın
kararlılıkla
belirtilmektedir
yaşanılan
sonucun
getirdikleri
kuşağı
##ush
nöro
rahatlat
gerisi
konuklar
varolan
gezerken
icinde
vesilesiyle
angela
ünye
##ılmaksızın
hızır
##düğümüz
sanayinin
mecidiy
kasabada
aşağılık
değişecek
antiv
modunda
düdük
billy
dörtte
aga
durumların
dişleri
turku
simgel
majest
##dol
bakayım
açtık
yüks
okş
sendikal
emzirme
kazandırır
düm
113
##mıyordu
##arta
projemiz
kalitesiz
makedon
pıhtı
başlamasıyla
davalar
barın
parçayı
süresinde
adaylara
##rix
suit
##mıyorsun
muyum
yapabileceğini
rönesans
##üğünü
eklenmesi
##ebilecekleri
hentbol
ahır
çamlı
düşünüldüğünde
kabir
##tüst
hedeflerinin
günlüğü
ödülüne
topluyor
ekli
salonuna
explor
##dragon
köyler
harem
bilemem
tarifini
ikincil
karşılaşmasında
duruşmaya
##zz
aklımıza
eserinde
sınavın
yaparsın
olayım
mıknat
##lığımı
rh
##ğimi
çektiğini
tanımlamak
syn
çocuklarımızı
##ikleri
apol
girişimler
abdülkadir
aranıyorsanız
barınak
seviyelere
ekol
kurumlarından
acılar
ümid
fabrikaları
baktığınızda
adın
manda
kaynaklan
vergileri
dolandırdığına
beşer
çıkışında
##6627
brian
##hor
fermuar
ürper
sergen
duz
yaşlılık
olmadıkları
kararlarına
koğ
basınında
yaşlanma
ortalarında
çalma
hisseden
teknolojisini
einstein
gözünün
dolaşıp
milletvekilliği
köksal
kütük
açıklamasının
satıldı
faaliyetlerinde
özendir
değişmiş
0506627
05066272311
geleceğim
tesbih
##eceğinize
işlemek
çalınan
kızlarla
yazılımlar
röntgen
expo
reformlar
kökeni
moldo
turunda
patladı
ağları
heyecanını
reddeden
çocuklu
yumuşa
izole
diğerinin
dayı
olduklarından
123
giymiş
4000
kalacağını
##rif
##ılmayacak
sayıştay
reçel
yapılmadı
hazırladığınız
görmesini
harvard
water
somali
hiçe
maaşları
##si̇z
##iliğinde
yapabilirsin
##adar
i̇skoçya
1946
bırakıyorum
sahilde
nasılsa
2500
##tiğinden
bozulma
gezerek
taraftarların
1921
kromozom
kazandığını
i̇zlanda
deyin
thor
gaza
formasını
umuyor
izlenme
##miyim
becerik
kazançlar
##dýðý
saçmalık
saygısızlık
konuşalım
ferit
karıştırıp
zeytinyağ
zence
##laştırılması
karaya
çalgı
ekranlara
##stantin
vereceğiniz
karşılaştırıldığında
##ayak
giş
yks
varmak
gecekon
yakınındaki
##tiva
tavş
sitelerini
ihtiyaçlarının
##ны
##luğundaki
gibiyim
tuncer
christian
##rese
aramada
gereksinimi
olcay
osmanlıca
ayrılı
sf
edersek
repo
optimum
i̇nsanlara
yds
##kardeş
mürettebat
isi
dürüstlük
##deti
bakanımız
hayallerini
bozulmuş
konserler
deresi
değiştirebilir
##ezid
anavatan
312
temizle
ozon
ji
bakara
olaylarla
afiyet
bulundurarak
çekilme
yulaf
meclisin
parmağı
pass
nesiller
nedenlerinden
başörtüsü
##þtur
##olla
taşımaya
patri
hayaller
##ilerimiz
sırasına
yurdun
fem
farkları
mesafesi
faydalanabilirsiniz
uygulamalarına
davacının
alternatifi
amma
jest
miny
verilirken
atlar
kıvanç
bim
fabrikada
kalmaktadır
denizbank
ölçekte
sistemidir
kimseyle
yapacaksınız
etkinliklerle
##irseniz
bekletin
kck
sının
##retim
yağları
yasaların
yapabileceğim
sporcuların
aylarca
deklar
manto
alınmasının
boyuta
##lebi
yarışta
##memelidir
mevkii
##cing
##lix
çıkartıyor
açıkta
##ersey
##melerinde
açıklayıcı
kaldırır
ribaunt
kararlarının
işlemlerine
eksil
duymadan
secur
antivir
bilmediğim
yakan
##tayken
çiftlerin
getireceği
istila
buzul
ihtar
şişme
görseller
kolaylaştıran
münaf
gözlüğü
##uble
tarafýndan
katıyor
ilgileniyor
arsenal
talimatları
##foni
başarısızlık
üniversiteli
düşürür
##taya
119
mahkemeleri
yönetecek
##dettin
söylediğin
##umet
hrant
problemin
alice
istenir
sözel
verileceği
taslağı
i̇lham
güncellemesi
olanaksız
ni̇n
##mıyorlar
böyledir
boris
ilıca
kravat
projelerinde
cazibe
ekiplerine
çoğunluğunun
algısı
şifreli
vard
geçmeyen
akkaya
ayasofya
habertürk
wilson
mikroorgan
##layanlar
işinize
düşmanlık
avantajlar
bırakmayan
sayıya
bülteni
boyutlara
milis
menopoz
arkadaşlarımızın
kaldırarak
merci
tekil
sergide
i̇şleme
şehirlerin
##uğu
koza
kaygısı
##alo
clark
tech
##aks
##ediklerini
bakmadan
listel
amortis
doğuda
iyileştirilmesi
tarafları
sözleşmesini
##ль
aşmak
oyak
dışardan
zamanının
mk
annemle
cümlesi
177
şişir
mudanya
bahçeleri
sehpa
sendikalar
moon
türünden
teala
##ugeot
##sındaki
gösterici
yandı
yayılması
call
rick
noktalarından
giydi
büyümesini
rg
formunda
dışarda
cannes
cüret
artmıştır
gerileme
parçaya
korkan
akışkan
kurg
teksas
slm
denince
folklor
sima
##light
aktarılması
vakum
iyiliği
hattına
gidebil
çakıl
family
seyrede
mayo
konfederasyon
neleri
oksit
viv
kıymetini
bulmuştur
düşünüyorlar
dekore
demiyorum
i̇htis
optimize
karakterin
##atepe
şampiyona
##lе
çevresini
görüşüne
1956
##mazdım
ellerinize
##tana
biyograf
iner
defil
koly
hedeflenen
i̇ki̇
geldiklerinde
görmüştür
semer
mülkiyeti
1944
oluşabilir
istemedi
toplanacak
kapısının
south
##kılap
görüntülerini
olmayınca
elçisi
kıyma
anca
kitlelere
güzelliğini
yaprağı
kenet
seviyoruz
istisn
sahneler
kusurlu
8217
önemsem
yolcuların
suk
nijerya
sorulması
leziz
paketler
vermekle
bugun
silahsız
mach
sant
fiyatlarındaki
amaçlarla
suçtan
isimlerle
ritim
sevmez
##63
süratle
maçından
tüketmek
şehitleri
tuşları
prova
istersiniz
##ihisar
şehrinin
cocu
üretilmesi
zorundadırlar
balıkları
bahçesine
faizleri
niyetinde
temsili
elektromanyetik
projelerine
engellenmesi
etkiyi
doug
arkadaşıyla
kolaylaştıracak
erkeklerden
karakterlerin
çimen
tebrikler
##otekn
peugeot
caydır
atıkların
dro
bağr
koskoca
nedenden
kağıthane
##i̇nci̇
tag
hepimize
akpınar
##linde
##ody
toplumlar
cumhurbaşkanının
mazhar
hanımın
yarımadası
ölçe
##ий
açılıp
düşeni
ayındaki
müzakereler
i̇srailli
tutmayı
rumların
##layabileceğiniz
aktiviteleri
dahildir
vatikan
moleküler
kabızlık
i̇lgi
##ilmediği
bulamıyor
gelmekte
nitel
kışla
isimlerinin
başladığımız
yataklı
avı
sağlanacaktır
katılıp
alsın
zübey
ilimizin
##ebileceğim
bedir
hizmetinin
düzeltilmesi
kurtuldu
davranmak
##yam
pelin
1ch
##reni
dolarla
usulüne
çalıştılar
hitaben
başın
barak
##craft
##rara
nazilli
kafamda
anan
süreçlerini
meditasyon
olduysa
kazanabilirsiniz
rs
amcam
phil
tesiste
feneri
olmuşlardır
##senger
okyanusu
yüzün
minyatür
dec
oluşmuştur
komutu
dt
üreticilerin
uzmanlaşmış
doldurup
surette
içgüdü
merkür
okunur
##lace
fax
geçiyoruz
sağlayacağı
kolaylaştırır
beklemektedir
sokan
değere
swe
büyükann
saatini
124
koltu
yüklenici
partiyi
sahibidir
mahalleye
sco
##tirma
fazlaca
##retmen
muafiyet
barışçıl
derecelendirme
##ebileceğimiz
##̈n
pardon
page
severlerin
maki
vurmuş
tutuksuz
pi̇
##babı
yapınca
##tics
yetkilidir
##ıtı
düşmesine
alttan
tövbe
polar
##buğ
nominal
gönderilmiş
uzağa
elemanlar
yatirim
lon
##aro
kullanacağınız
başladığım
hayatınızın
yazi
çekiliyor
interaktif
parazit
beklenmektedir
yaşamanın
websit
standartlarında
##nastik
##ank
tartışmanın
meselenin
sz
gerekeni
##ilebileceğini
döndüğünü
müezz
gerçekleştirdiğimiz
yabani
biliriz
sabık
karşılar
##ils
##uv
pazarının
##oit
sağolsun
hastalıktır
kuvvetlendir
##iklik
toksin
değiştirip
bedelleri
rakipleri
gast
çevirme
lobi
derisi
derslere
arkadaşlarıma
vurgulamak
tool
çıkıyoruz
snow
gönderiyor
akıbet
problemlerin
yağm
girişte
sohbetler
benze
yumurtalık
ihracatın
şiirin
grubundan
litvanya
myk
yurd
##lanmasından
sergilediği
sorunlarından
kazançlı
odadan
yukarıdan
savunmaya
doping
dürtü
devra
vurarak
istemişti
kağan
##rie
122
suların
yaptığına
desteğine
getirecektir
ulaşıp
yedim
yollarına
onurlandır
teli
hayatlarında
yapılmadığı
sean
kanda
yaşlılar
sezg
gereksinimleri
kürd
olayının
ayin
prolet
##ılmadığı
etkenler
şımar
tutması
anime
türbesi
fly
yaşanır
tapınağı
gününün
##amazlar
##veli
romanın
doludur
koymaktadır
dokuzuncu
işlerle
##ets
ihtiyaca
geçince
satarak
ürününü
döndüğü
ple
aldınız
baysal
uykusuzluk
##nesi
arit
beklendiği
elinin
bırakabilirsiniz
metraj
tüketiminin
örgütsel
vatansever
kopuk
görenler
kartvizit
koltuğuna
üne
##okiralama
manyak
ihtiyaçlar
muhter
ülken
hedeflediklerini
şekildedir
bakanlığından
engelliyor
teleskop
partisine
doldurun
attığını
##lýðý
rahatlama
dick
kemir
atmosferi
lokant
vuku
isteye
gerçekleştiğini
toprakların
##ülmüştü
seçeneklerinin
1953
aştı
umud
bitkisi
hükümetler
yüzüme
koro
planladığı
##mah
aşın
emrine
mecidiyeköy
yıllarını
şansın
makyajı
muayenesi
sorunumuz
inanış
katılmıştır
gönderim
kodlu
##ook
##esta
idarenin
kilolu
etkinliklerin
add
poliç
yükselir
hızında
kullanımda
yaşattı
derb
whit
gördüğünde
nesnel
hayir
tutkulu
1900
##dioksit
paça
masasına
tescili
samet
köpekleri
ava
gelenin
uçuk
sureti
##semburg
bulmakta
sözlerinin
takipçiler
sevmiyor
buzdolabında
bağımsızlığı
ordusuna
dsi̇
wc
akıt
##lov
##ologlar
adsl
f1
malzemeyi
sırları
hiyerarş
küreselleşme
bedenin
belediyeye
skype
hasarlı
ağlıyor
statüsünde
ross
doldurul
hükmün
geldiklerini
eczacılık
i̇lişkileri
hul
hindi
ankete
[...]
